{
  "version": "1.0",
  "truncation": null,
  "padding": null,
  "added_tokens": [
    {
      "id": 0,
      "content": "<|pad|>",
      "single_word": false,
      "lstrip": false,
      "rstrip": false,
      "normalized": false,
      "special": true
    },
    {
      "id": 1,
      "content": "<|bos|>",
      "single_word": false,
      "lstrip": false,
      "rstrip": false,
      "normalized": false,
      "special": true
    },
    {
      "id": 2,
      "content": "<|eos|>",
      "single_word": false,
      "lstrip": false,
      "rstrip": false,
      "normalized": false,
      "special": true
    },
    {
      "id": 3,
      "content": "<|unk|>",
      "single_word": false,
      "lstrip": false,
      "rstrip": false,
      "normalized": false,
      "special": true
    },
    {
      "id": 4,
      "content": "<|sep|>",
      "single_word": false,
      "lstrip": false,
      "rstrip": false,
      "normalized": false,
      "special": true
    },
    {
      "id": 5,
      "content": "<|indent|>",
      "single_word": false,
      "lstrip": false,
      "rstrip": false,
      "normalized": false,
      "special": true
    },
    {
      "id": 6,
      "content": "<|dedent|>",
      "single_word": false,
      "lstrip": false,
      "rstrip": false,
      "normalized": false,
      "special": true
    },
    {
      "id": 7,
      "content": "<|newline|>",
      "single_word": false,
      "lstrip": false,
      "rstrip": false,
      "normalized": false,
      "special": true
    },
    {
      "id": 8,
      "content": "<|fim_prefix|>",
      "single_word": false,
      "lstrip": false,
      "rstrip": false,
      "normalized": false,
      "special": true
    },
    {
      "id": 9,
      "content": "<|fim_suffix|>",
      "single_word": false,
      "lstrip": false,
      "rstrip": false,
      "normalized": false,
      "special": true
    },
    {
      "id": 10,
      "content": "<|fim_middle|>",
      "single_word": false,
      "lstrip": false,
      "rstrip": false,
      "normalized": false,
      "special": true
    },
    {
      "id": 11,
      "content": "<|user_style|>",
      "single_word": false,
      "lstrip": false,
      "rstrip": false,
      "normalized": false,
      "special": true
    }
  ],
  "normalizer": null,
  "pre_tokenizer": {
    "type": "ByteLevel",
    "add_prefix_space": false,
    "trim_offsets": true,
    "use_regex": true
  },
  "post_processor": {
    "type": "TemplateProcessing",
    "single": [
      {
        "SpecialToken": {
          "id": "<|bos|>",
          "type_id": 0
        }
      },
      {
        "Sequence": {
          "id": "A",
          "type_id": 0
        }
      },
      {
        "SpecialToken": {
          "id": "<|eos|>",
          "type_id": 0
        }
      }
    ],
    "pair": [
      {
        "Sequence": {
          "id": "A",
          "type_id": 0
        }
      },
      {
        "Sequence": {
          "id": "B",
          "type_id": 1
        }
      }
    ],
    "special_tokens": {
      "<|bos|>": {
        "id": "<|bos|>",
        "ids": [
          1
        ],
        "tokens": [
          "<|bos|>"
        ]
      },
      "<|eos|>": {
        "id": "<|eos|>",
        "ids": [
          2
        ],
        "tokens": [
          "<|eos|>"
        ]
      }
    }
  },
  "decoder": {
    "type": "ByteLevel",
    "add_prefix_space": true,
    "trim_offsets": true,
    "use_regex": true
  },
  "model": {
    "type": "BPE",
    "dropout": null,
    "unk_token": "<|unk|>",
    "continuing_subword_prefix": null,
    "end_of_word_suffix": null,
    "fuse_unk": false,
    "byte_fallback": false,
    "ignore_merges": false,
    "vocab": {
      "<|pad|>": 0,
      "<|bos|>": 1,
      "<|eos|>": 2,
      "<|unk|>": 3,
      "<|sep|>": 4,
      "<|indent|>": 5,
      "<|dedent|>": 6,
      "<|newline|>": 7,
      "<|fim_prefix|>": 8,
      "<|fim_suffix|>": 9,
      "<|fim_middle|>": 10,
      "<|user_style|>": 11,
      "!": 12,
      "\"": 13,
      "#": 14,
      "$": 15,
      "%": 16,
      "&": 17,
      "'": 18,
      "(": 19,
      ")": 20,
      "*": 21,
      "+": 22,
      ",": 23,
      "-": 24,
      ".": 25,
      "/": 26,
      "0": 27,
      "1": 28,
      "2": 29,
      "3": 30,
      "4": 31,
      "5": 32,
      "6": 33,
      "7": 34,
      "8": 35,
      "9": 36,
      ":": 37,
      ";": 38,
      "<": 39,
      "=": 40,
      ">": 41,
      "?": 42,
      "@": 43,
      "A": 44,
      "B": 45,
      "C": 46,
      "D": 47,
      "E": 48,
      "F": 49,
      "G": 50,
      "H": 51,
      "I": 52,
      "J": 53,
      "K": 54,
      "L": 55,
      "M": 56,
      "N": 57,
      "O": 58,
      "P": 59,
      "Q": 60,
      "R": 61,
      "S": 62,
      "T": 63,
      "U": 64,
      "V": 65,
      "W": 66,
      "X": 67,
      "Y": 68,
      "Z": 69,
      "[": 70,
      "\\": 71,
      "]": 72,
      "^": 73,
      "_": 74,
      "`": 75,
      "a": 76,
      "b": 77,
      "c": 78,
      "d": 79,
      "e": 80,
      "f": 81,
      "g": 82,
      "h": 83,
      "i": 84,
      "j": 85,
      "k": 86,
      "l": 87,
      "m": 88,
      "n": 89,
      "o": 90,
      "p": 91,
      "q": 92,
      "r": 93,
      "s": 94,
      "t": 95,
      "u": 96,
      "v": 97,
      "w": 98,
      "x": 99,
      "y": 100,
      "z": 101,
      "{": 102,
      "|": 103,
      "}": 104,
      "~": 105,
      "¡": 106,
      "¢": 107,
      "£": 108,
      "¤": 109,
      "¥": 110,
      "¦": 111,
      "§": 112,
      "¨": 113,
      "©": 114,
      "ª": 115,
      "«": 116,
      "¬": 117,
      "®": 118,
      "¯": 119,
      "°": 120,
      "±": 121,
      "²": 122,
      "³": 123,
      "´": 124,
      "µ": 125,
      "¶": 126,
      "·": 127,
      "¸": 128,
      "¹": 129,
      "º": 130,
      "»": 131,
      "¼": 132,
      "½": 133,
      "¾": 134,
      "¿": 135,
      "À": 136,
      "Á": 137,
      "Â": 138,
      "Ã": 139,
      "Ä": 140,
      "Å": 141,
      "Æ": 142,
      "Ç": 143,
      "È": 144,
      "É": 145,
      "Ê": 146,
      "Ë": 147,
      "Ì": 148,
      "Í": 149,
      "Î": 150,
      "Ï": 151,
      "Ð": 152,
      "Ñ": 153,
      "Ò": 154,
      "Ó": 155,
      "Ô": 156,
      "Õ": 157,
      "Ö": 158,
      "×": 159,
      "Ø": 160,
      "Ù": 161,
      "Ú": 162,
      "Û": 163,
      "Ü": 164,
      "Ý": 165,
      "Þ": 166,
      "ß": 167,
      "à": 168,
      "á": 169,
      "â": 170,
      "ã": 171,
      "ä": 172,
      "å": 173,
      "æ": 174,
      "ç": 175,
      "è": 176,
      "é": 177,
      "ê": 178,
      "ë": 179,
      "ì": 180,
      "í": 181,
      "î": 182,
      "ï": 183,
      "ð": 184,
      "ñ": 185,
      "ò": 186,
      "ó": 187,
      "ô": 188,
      "õ": 189,
      "ö": 190,
      "÷": 191,
      "ø": 192,
      "ù": 193,
      "ú": 194,
      "û": 195,
      "ü": 196,
      "ý": 197,
      "þ": 198,
      "ÿ": 199,
      "Ā": 200,
      "ā": 201,
      "Ă": 202,
      "ă": 203,
      "Ą": 204,
      "ą": 205,
      "Ć": 206,
      "ć": 207,
      "Ĉ": 208,
      "ĉ": 209,
      "Ċ": 210,
      "ċ": 211,
      "Č": 212,
      "č": 213,
      "Ď": 214,
      "ď": 215,
      "Đ": 216,
      "đ": 217,
      "Ē": 218,
      "ē": 219,
      "Ĕ": 220,
      "ĕ": 221,
      "Ė": 222,
      "ė": 223,
      "Ę": 224,
      "ę": 225,
      "Ě": 226,
      "ě": 227,
      "Ĝ": 228,
      "ĝ": 229,
      "Ğ": 230,
      "ğ": 231,
      "Ġ": 232,
      "ġ": 233,
      "Ģ": 234,
      "ģ": 235,
      "Ĥ": 236,
      "ĥ": 237,
      "Ħ": 238,
      "ħ": 239,
      "Ĩ": 240,
      "ĩ": 241,
      "Ī": 242,
      "ī": 243,
      "Ĭ": 244,
      "ĭ": 245,
      "Į": 246,
      "į": 247,
      "İ": 248,
      "ı": 249,
      "Ĳ": 250,
      "ĳ": 251,
      "Ĵ": 252,
      "ĵ": 253,
      "Ķ": 254,
      "ķ": 255,
      "ĸ": 256,
      "Ĺ": 257,
      "ĺ": 258,
      "Ļ": 259,
      "ļ": 260,
      "Ľ": 261,
      "ľ": 262,
      "Ŀ": 263,
      "ŀ": 264,
      "Ł": 265,
      "ł": 266,
      "Ń": 267,
      "ĠĠ": 268,
      "ĠĠĠĠ": 269,
      "ĠĠĠ": 270,
      "ĠĠĠĠĠĠĠĠ": 271,
      "se": 272,
      "in": 273,
      "ĠĠĠĠĠĠĠ": 274,
      "re": 275,
      "at": 276,
      "on": 277,
      "Ġ=": 278,
      "or": 279,
      "er": 280,
      "st": 281,
      "en": 282,
      "Ġt": 283,
      "de": 284,
      "al": 285,
      "ar": 286,
      "sel": 287,
      "self": 288,
      "ĠĠĠĠĠĠĠĠĠĠĠ": 289,
      "me": 290,
      "an": 291,
      "le": 292,
      "Ġi": 293,
      "ti": 294,
      "Ġc": 295,
      "ro": 296,
      "Ġp": 297,
      "Ġf": 298,
      "--": 299,
      "he": 300,
      "it": 301,
      "Ġ\"": 302,
      "as": 303,
      "ge": 304,
      "Ġ'": 305,
      "Ġself": 306,
      "mp": 307,
      "Ġre": 308,
      "ce": 309,
      "ur": 310,
      "lo": 311,
      "Ġn": 312,
      "ut": 313,
      "Ġin": 314,
      "):": 315,
      "ame": 316,
      "ĠĠĠĠĠĠĠĠĠĠĠĠĠĠĠĠ": 317,
      "##": 318,
      "Ġs": 319,
      "ct": 320,
      "ue": 321,
      "ing": 322,
      "Ġo": 323,
      "di": 324,
      "li": 325,
      "ate": 326,
      "Ġ#": 327,
      "Ġa": 328,
      "def": 329,
      "fi": 330,
      "pe": 331,
      "co": 332,
      "',": 333,
      "Ġe": 334,
      "ent": 335,
      "ion": 336,
      "Ġm": 337,
      "un": 338,
      "()": 339,
      "ra": 340,
      "id": 341,
      "te": 342,
      "tion": 343,
      "čĊ": 344,
      "==": 345,
      "ad": 346,
      "ort": 347,
      "Ġb": 348,
      "ser": 349,
      "ĠĠĠĠĠĠĠĠĠĠĠĠĠĠĠ": 350,
      "Ġthe": 351,
      "ch": 352,
      "ata": 353,
      "Ġd": 354,
      "Ġif": 355,
      "um": 356,
      "----": 357,
      "\"\"": 358,
      "urn": 359,
      "ul": 360,
      "Ġw": 361,
      "ss": 362,
      "ck": 363,
      "Ġ(": 364,
      "turn": 365,
      "ri": 366,
      "la": 367,
      "ot": 368,
      "__": 369,
      "mport": 370,
      "and": 371,
      "int": 372,
      "get": 373,
      "el": 374,
      "ma": 375,
      "ed": 376,
      "Ġfor": 377,
      "Ġdef": 378,
      "ode": 379,
      "\",": 380,
      "name": 381,
      "val": 382,
      "')": 383,
      "Ġ1": 384,
      "ol": 385,
      "Ġreturn": 386,
      "ation": 387,
      "one": 388,
      "####": 389,
      "rom": 390,
      "('": 391,
      "set": 392,
      "Ġ[": 393,
      "Ġ0": 394,
      "))": 395,
      "00": 396,
      "Ġst": 397,
      "ype": 398,
      "es": 399,
      "th": 400,
      "up": 401,
      "con": 402,
      "':": 403,
      "Ġto": 404,
      "si": 405,
      "Ġ+": 406,
      "ĠT": 407,
      "ath": 408,
      "ter": 409,
      "']": 410,
      "is": 411,
      "xt": 412,
      "ap": 413,
      "il": 414,
      "ver": 415,
      "et": 416,
      "(\"": 417,
      "arg": 418,
      "ĠN": 419,
      "ve": 420,
      "),": 421,
      "Ġis": 422,
      "Ġ-": 423,
      "ass": 424,
      "ction": 425,
      "Ġ\"\"\"": 426,
      "from": 427,
      "['": 428,
      "ĠF": 429,
      "ke": 430,
      "Ġimport": 431,
      "Ġas": 432,
      "Ġ{": 433,
      "am": 434,
      "Ġof": 435,
      "sp": 436,
      "ab": 437,
      "data": 438,
      "qu": 439,
      "op": 440,
      "put": 441,
      "orm": 442,
      "cl": 443,
      "\")": 444,
      "Ġ==": 445,
      "end": 446,
      "Ġl": 447,
      "ult": 448,
      "ect": 449,
      "age": 450,
      "odel": 451,
      "Ġg": 452,
      "ĠĠĠĠĠĠĠĠĠĠĠĠĠĠĠĠĠĠĠ": 453,
      "Ġcon": 454,
      "],": 455,
      "ig": 456,
      "par": 457,
      "ht": 458,
      "est": 459,
      "to": 460,
      "po": 461,
      "value": 462,
      "vi": 463,
      "\":": 464,
      "rue": 465,
      "ĠC": 466,
      "ĠS": 467,
      "ze": 468,
      "list": 469,
      "Ġr": 470,
      "Ġ2": 471,
      "path": 472,
      "all": 473,
      "rint": 474,
      "od": 475,
      "--------": 476,
      "ĠA": 477,
      "ith": 478,
      "sh": 479,
      "pro": 480,
      "ĉĉ": 481,
      "Ġ:": 482,
      "Ġ*": 483,
      "sert": 484,
      "log": 485,
      "Ġu": 486,
      "str": 487,
      "ile": 488,
      "om": 489,
      "ĠNone": 490,
      "._": 491,
      "Ġand": 492,
      "type": 493,
      "file": 494,
      "Ġnot": 495,
      "ub": 496,
      "args": 497,
      "====": 498,
      "Ġdi": 499,
      "Ġh": 500,
      "ord": 501,
      "ta": 502,
      "ic": 503,
      "per": 504,
      "Ġ===": 505,
      "ine": 506,
      "='": 507,
      "import": 508,
      "tr": 509,
      "ase": 510,
      "Ġex": 511,
      "Ġde": 512,
      "form": 513,
      "ment": 514,
      "out": 515,
      "########": 516,
      "Ġth": 517,
      "res": 518,
      "OR": 519,
      "sc": 520,
      "ror": 521,
      "que": 522,
      "ow": 523,
      "key": 524,
      "ĠP": 525,
      "AT": 526,
      "ex": 527,
      "fig": 528,
      "bj": 529,
      "ĠI": 530,
      "ew": 531,
      "able": 532,
      "Re": 533,
      "Ġdata": 534,
      "ption": 535,
      "app": 536,
      "ite": 537,
      "SE": 538,
      "])": 539,
      "us": 540,
      "ist": 541,
      "time": 542,
      "LE": 543,
      "ren": 544,
      "ers": 545,
      "AR": 546,
      "ĠĠĠĠĠ": 547,
      "ac": 548,
      "class": 549,
      "alse": 550,
      "Ġprint": 551,
      "Ġ_": 552,
      "Ġel": 553,
      "len": 554,
      "lab": 555,
      "Ġstr": 556,
      "test": 557,
      "ĠD": 558,
      "red": 559,
      "ack": 560,
      "ance": 561,
      "Ġelse": 562,
      "add": 563,
      "Ġx": 564,
      "Ġnp": 565,
      "eld": 566,
      "ĠL": 567,
      "mple": 568,
      "fo": 569,
      "ange": 570,
      "Ġpar": 571,
      "ĠĠĠĠĠĠĠĠĠĠĠĠĠĠĠĠĠĠĠĠĠĠĠĠĠĠĠĠĠĠĠĠ": 572,
      "bo": 573,
      "Ġy": 574,
      "Ġme": 575,
      "date": 576,
      "py": 577,
      "pt": 578,
      "Ġ%": 579,
      "Ġwith": 580,
      "Ġ)": 581,
      "ff": 582,
      "ure": 583,
      "quest": 584,
      "Ġse": 585,
      "mo": 586,
      "Ġtest": 587,
      "Ġpro": 588,
      "atch": 589,
      "Ġco": 590,
      "[\"": 591,
      "True": 592,
      "size": 593,
      "text": 594,
      "ci": 595,
      "ext": 596,
      "ĠM": 597,
      "**": 598,
      "der": 599,
      "mage": 600,
      "Ġv": 601,
      "our": 602,
      "Ġres": 603,
      "Ġbe": 604,
      "art": 605,
      "Ġor": 606,
      "unt": 607,
      "=\"": 608,
      "In": 609,
      "lay": 610,
      "Ġma": 611,
      "Ġname": 612,
      "im": 613,
      "ĠE": 614,
      "dex": 615,
      "01": 616,
      "Ġget": 617,
      "ind": 618,
      "ms": 619,
      "bject": 620,
      "Ġ3": 621,
      "Ġ__": 622,
      "model": 623,
      "load": 624,
      "ime": 625,
      "mb": 626,
      "col": 627,
      "pre": 628,
      "param": 629,
      "label": 630,
      "\"]": 631,
      "Ġfile": 632,
      "ĠĠĠĠĠĠĠĠĠĠĠĠĠĠĠĠĠĠĠĠĠĠĠ": 633,
      "ly": 634,
      "ault": 635,
      "ray": 636,
      "iz": 637,
      "ILE": 638,
      "ask": 639,
      "reate": 640,
      "ty": 641,
      "..": 642,
      "rain": 643,
      "low": 644,
      "cess": 645,
      "tri": 646,
      "Ġvalue": 647,
      "ho": 648,
      "ag": 649,
      "ise": 650,
      "ens": 651,
      "\"\"\"": 652,
      "dir": 653,
      "ctor": 654,
      "jo": 655,
      "rror": 656,
      "append": 657,
      "ep": 658,
      "PAR": 659,
      "ans": 660,
      "ĠO": 661,
      "num": 662,
      "com": 663,
      "url": 664,
      "ay": 665,
      "ces": 666,
      "und": 667,
      "dict": 668,
      "Ġ<": 669,
      "IN": 670,
      "ield": 671,
      "Ġassert": 672,
      "ph": 673,
      "Ġout": 674,
      "Ġmodel": 675,
      "stance": 676,
      "ape": 677,
      "os": 678,
      "assert": 679,
      "rent": 680,
      "loc": 681,
      "ATOR": 682,
      "if": 683,
      "ĠFILE": 684,
      "son": 685,
      "ity": 686,
      "PARATOR": 687,
      "Ġlen": 688,
      "SEPARATOR": 689,
      "None": 690,
      "},": 691,
      "Error": 692,
      "format": 693,
      ").": 694,
      "10": 695,
      "code": 696,
      "ry": 697,
      "ON": 698,
      "ang": 699,
      "che": 700,
      "//": 701,
      "bu": 702,
      "ER": 703,
      "Ġos": 704,
      "Ġlog": 705,
      "========": 706,
      "ĠB": 707,
      "Ġhe": 708,
      "----------------": 709,
      "ard": 710,
      "user": 711,
      "Ġk": 712,
      "onse": 713,
      "lic": 714,
      "read": 715,
      "init": 716,
      "oc": 717,
      "array": 718,
      "ator": 719,
      "min": 720,
      "ample": 721,
      "ssion": 722,
      "ssage": 723,
      "Ġon": 724,
      "ust": 725,
      "ir": 726,
      "ule": 727,
      "__(": 728,
      "ary": 729,
      "Ġfrom": 730,
      "():": 731,
      "Ġan": 732,
      "json": 733,
      "fe": 734,
      "ĠTrue": 735,
      "ĠG": 736,
      "ize": 737,
      "Con": 738,
      "Ġlist": 739,
      "ument": 740,
      "fa": 741,
      "Ġ>": 742,
      "ource": 743,
      "Ġset": 744,
      "ĠR": 745,
      "ls": 746,
      "ute": 747,
      "Ġ@": 748,
      "ST": 749,
      "config": 750,
      "Ġro": 751,
      "Ġun": 752,
      "ork": 753,
      "ber": 754,
      "tp": 755,
      "################": 756,
      "ip": 757,
      "Ġen": 758,
      "lot": 759,
      "ight": 760,
      "ger": 761,
      "roup": 762,
      "ave": 763,
      "vice": 764,
      "Ġra": 765,
      "Ġtime": 766,
      "Ġnum": 767,
      "thod": 768,
      "lient": 769,
      "error": 770,
      "max": 771,
      "Ġch": 772,
      "dd": 773,
      "line": 774,
      "ĠU": 775,
      "pp": 776,
      "valid": 777,
      "ĠĠĠĠĠĠĠĠĠĠĠĠ": 778,
      "sed": 779,
      "count": 780,
      "qual": 781,
      "ĠW": 782,
      "vent": 783,
      "rep": 784,
      "Ġint": 785,
      "Ġcol": 786,
      "False": 787,
      "ĠFalse": 788,
      "Ġ4": 789,
      "stat": 790,
      "Ġresult": 791,
      "ME": 792,
      "].": 793,
      "cur": 794,
      "info": 795,
      "ener": 796,
      "shape": 797,
      "ĠV": 798,
      "ne": 799,
      "loat": 800,
      "ĠĊ": 801,
      "sponse": 802,
      "index": 803,
      "ted": 804,
      "no": 805,
      "Ġtype": 806,
      "ll": 807,
      "cept": 808,
      "pi": 809,
      "Ġat": 810,
      "rame": 811,
      "ations": 812,
      "Ġpo": 813,
      "Ġthis": 814,
      "([": 815,
      "lif": 816,
      "cs": 817,
      "ĠRe": 818,
      "Ġ[]": 819,
      "arget": 820,
      "ari": 821,
      "Ġ/": 822,
      "gra": 823,
      "uth": 824,
      "ts": 825,
      "vers": 826,
      "Ġwh": 827,
      "http": 828,
      "''": 829,
      "scri": 830,
      "RE": 831,
      "rite": 832,
      "Ġal": 833,
      "input": 834,
      "ild": 835,
      "ameter": 836,
      "lit": 837,
      "update": 838,
      "print": 839,
      "ann": 840,
      "df": 841,
      "unction": 842,
      "ings": 843,
      "20": 844,
      "Ġ`": 845,
      "we": 846,
      "Ġ+=": 847,
      "ft": 848,
      "sen": 849,
      "Ġrange": 850,
      "ump": 851,
      "lock": 852,
      "mand": 853,
      "tial": 854,
      "ec": 855,
      "Ġ{}": 856,
      "99": 857,
      "Ġop": 858,
      "ok": 859,
      "are": 860,
      "join": 861,
      "Ġ5": 862,
      "12": 863,
      "ery": 864,
      "umn": 865,
      "Ġby": 866,
      "Ġcl": 867,
      ".__": 868,
      "ght": 869,
      "sub": 870,
      "Ġelif": 871,
      "Ġkey": 872,
      "Ġpre": 873,
      "for": 874,
      "ĠThe": 875,
      "ys": 876,
      "point": 877,
      "wargs": 878,
      "mat": 879,
      "np": 880,
      "word": 881,
      "ock": 882,
      "train": 883,
      "Ġthat": 884,
      "Ġwe": 885,
      "base": 886,
      "yn": 887,
      "Ġsh": 888,
      "main": 889,
      "object": 890,
      "db": 891,
      "image": 892,
      "ject": 893,
      "state": 894,
      "ense": 895,
      "late": 896,
      "'),": 897,
      "ore": 898,
      "Ġnew": 899,
      "gs": 900,
      "Ġraise": 901,
      "da": 902,
      "qui": 903,
      "ception": 904,
      "Ġuser": 905,
      "own": 906,
      "gth": 907,
      "Ġ->": 908,
      "Ġpy": 909,
      "][": 910,
      "ĠĠĠĠĊ": 911,
      "start": 912,
      "output": 913,
      "og": 914,
      "node": 915,
      "port": 916,
      "ID": 917,
      "'],": 918,
      "Ġrequest": 919,
      "lib": 920,
      "ml": 921,
      "())": 922,
      "ial": 923,
      "version": 924,
      "cal": 925,
      "orch": 926,
      "work": 927,
      "Ġdefault": 928,
      "ory": 929,
      "result": 930,
      "heck": 931,
      "ded": 932,
      "ax": 933,
      "Equal": 934,
      "://": 935,
      "ĠH": 936,
      "map": 937,
      "32": 938,
      "mit": 939,
      "lin": 940,
      "IT": 941,
      "St": 942,
      "pect": 943,
      "Ġinput": 944,
      "Type": 945,
      "Name": 946,
      "Ġoutput": 947,
      "EN": 948,
      "ill": 949,
      "instance": 950,
      "tent": 951,
      "uti": 952,
      "lt": 953,
      "Data": 954,
      "comp": 955,
      "Ġcur": 956,
      "Ġ**": 957,
      "uct": 958,
      "emp": 959,
      "Ġ('": 960,
      "odule": 961,
      "Ġall": 962,
      "Ġpath": 963,
      "query": 964,
      "request": 965,
      "Ġexcept": 966,
      "row": 967,
      "andom": 968,
      "with": 969,
      "by": 970,
      "ken": 971,
      "Ġ\\": 972,
      "Ġare": 973,
      "Ġargs": 974,
      "vel": 975,
      "stri": 976,
      "Ġid": 977,
      "ast": 978,
      "ĠĠĠĠĠĠĠĠĠ": 979,
      "Ġno": 980,
      "Ġsub": 981,
      "[:": 982,
      "Pro": 983,
      "ace": 984,
      "tain": 985,
      "11": 986,
      "64": 987,
      "argument": 988,
      "ree": 989,
      "Ġcom": 990,
      "Ġconfig": 991,
      "Ġle": 992,
      "arch": 993,
      "ĠIn": 994,
      "Ġ}": 995,
      "Ġbo": 996,
      "(),": 997,
      "Field": 998,
      "ark": 999,
      "Ġtry": 1000,
      "ses": 1001,
      "Ex": 1002,
      "write": 1003,
      "Ġmax": 1004,
      "mi": 1005,
      "lename": 1006,
      "ress": 1007,
      "return": 1008,
      "02": 1009,
      "ated": 1010,
      "back": 1011,
      "().": 1012,
      "run": 1013,
      "assertEqual": 1014,
      "iv": 1015,
      "Ġac": 1016,
      "trib": 1017,
      "ant": 1018,
      "plot": 1019,
      "lu": 1020,
      "ĠĠĠĠĠĠĠĠĠĠĠĠĠĠĠĠĠĠĠĠĠĠĠĠĠĠĠ": 1021,
      "Ġ.": 1022,
      "reg": 1023,
      "ou": 1024,
      "lace": 1025,
      "view": 1026,
      "ull": 1027,
      "filename": 1028,
      "NA": 1029,
      "bs": 1030,
      "DE": 1031,
      "create": 1032,
      "av": 1033,
      "tions": 1034,
      "enti": 1035,
      "core": 1036,
      "split": 1037,
      "thon": 1038,
      "group": 1039,
      "lob": 1040,
      "'.": 1041,
      "ak": 1042,
      "params": 1043,
      "Ġcomp": 1044,
      "gn": 1045,
      "ader": 1046,
      "Ġax": 1047,
      "em": 1048,
      "right": 1049,
      "Ġline": 1050,
      "layer": 1051,
      "ds": 1052,
      "lp": 1053,
      "AN": 1054,
      "kwargs": 1055,
      "Ġit": 1056,
      "ensor": 1057,
      "\".": 1058,
      "ati": 1059,
      "arn": 1060,
      "((": 1061,
      "Ġpass": 1062,
      "Ġser": 1063,
      "Ġla": 1064,
      "iter": 1065,
      "xb": 1066,
      "api": 1067,
      "25": 1068,
      "0000": 1069,
      "Ġimage": 1070,
      "temp": 1071,
      "alue": 1072,
      "action": 1073,
      "ars": 1074,
      "AL": 1075,
      "client": 1076,
      "****": 1077,
      "Ġj": 1078,
      "ron": 1079,
      "loss": 1080,
      "ele": 1081,
      "order": 1082,
      "Ġ!": 1083,
      "idth": 1084,
      "Ġ{'": 1085,
      "ence": 1086,
      "net": 1087,
      "ache": 1088,
      "annel": 1089,
      "peci": 1090,
      "message": 1091,
      "method": 1092,
      "tem": 1093,
      "its": 1094,
      "Ġdo": 1095,
      "sum": 1096,
      "status": 1097,
      "new": 1098,
      "ameters": 1099,
      "izer": 1100,
      "fic": 1101,
      "Ġnode": 1102,
      "rid": 1103,
      "Ġtorch": 1104,
      "field": 1105,
      "xc": 1106,
      "string": 1107,
      "Ġz": 1108,
      "ign": 1109,
      "{}": 1110,
      "tra": 1111,
      "otal": 1112,
      "16": 1113,
      "Ġsup": 1114,
      "UT": 1115,
      "old": 1116,
      "scription": 1117,
      "perty": 1118,
      "Ġresponse": 1119,
      "Test": 1120,
      "================": 1121,
      "Ġso": 1122,
      "umpy": 1123,
      "ait": 1124,
      "ler": 1125,
      "xf": 1126,
      "Ġ!=": 1127,
      "ĠĠĠĠĠĠ": 1128,
      "Ġlabel": 1129,
      "ging": 1130,
      "ĠĠĠĠĠĠĠĠĊ": 1131,
      "ud": 1132,
      "xe": 1133,
      "rc": 1134,
      "itial": 1135,
      "tive": 1136,
      "ash": 1137,
      "ature": 1138,
      "Ġadd": 1139,
      "pos": 1140,
      "xa": 1141,
      "rans": 1142,
      "Ġuse": 1143,
      "default": 1144,
      "Ġ6": 1145,
      "AS": 1146,
      "Ġfil": 1147,
      "fix": 1148,
      "inter": 1149,
      "Ġapp": 1150,
      "fil": 1151,
      "uld": 1152,
      "NAME": 1153,
      "Ġopen": 1154,
      "ctory": 1155,
      "Co": 1156,
      "ĠCon": 1157,
      "nd": 1158,
      "check": 1159,
      "Ġper": 1160,
      "'])": 1161,
      "amp": 1162,
      "ures": 1163,
      "Res": 1164,
      "Ġcreate": 1165,
      "rect": 1166,
      "process": 1167,
      "mon": 1168,
      "tle": 1169,
      "TI": 1170,
      "md": 1171,
      "ES": 1172,
      "float": 1173,
      "cle": 1174,
      "icense": 1175,
      "000": 1176,
      "bin": 1177,
      "ies": 1178,
      "ther": 1179,
      "ariable": 1180,
      "move": 1181,
      "unc": 1182,
      "RO": 1183,
      "ual": 1184,
      "ĉĉĉ": 1185,
      "length": 1186,
      "Ġcheck": 1187,
      "au": 1188,
      "ments": 1189,
      "models": 1190,
      "Ġdate": 1191,
      "XX": 1192,
      "Ġ['": 1193,
      "ix": 1194,
      "Ġstart": 1195,
      "Ġne": 1196,
      "ach": 1197,
      "15": 1198,
      "MA": 1199,
      "so": 1200,
      "frame": 1201,
      "ulti": 1202,
      "trans": 1203,
      "lat": 1204,
      "do": 1205,
      "Ġjson": 1206,
      "values": 1207,
      "his": 1208,
      "ble": 1209,
      "clo": 1210,
      "Ġtf": 1211,
      "ptional": 1212,
      "try": 1213,
      "ran": 1214,
      "box": 1215,
      "local": 1216,
      "Ġobject": 1217,
      "Par": 1218,
      "Ġcan": 1219,
      "Ġrun": 1220,
      "Ġclass": 1221,
      "obj": 1222,
      "ww": 1223,
      "sition": 1224,
      "ties": 1225,
      "ef": 1226,
      "Ke": 1227,
      "ĠQ": 1228,
      "Ġfunction": 1229,
      "cord": 1230,
      "Ġfield": 1231,
      "pa": 1232,
      "idx": 1233,
      "ĠĠĠĠĠĠĠĠĠĠĠĠĠĠĠĠĠĠĠĠĠĠĠĠ": 1234,
      "Ġmodels": 1235,
      "List": 1236,
      "auth": 1237,
      "Ġdict": 1238,
      "80": 1239,
      "Ġparam": 1240,
      "Ġtrain": 1241,
      "...": 1242,
      "13": 1243,
      "Ġ|": 1244,
      "Ġbu": 1245,
      "ĠEx": 1246,
      "opy": 1247,
      "tes": 1248,
      "attr": 1249,
      "color": 1250,
      "call": 1251,
      "--------------------------------": 1252,
      "jang": 1253,
      "pected": 1254,
      "Ġtext": 1255,
      "]:": 1256,
      "raw": 1257,
      "Ġwill": 1258,
      "Ch": 1259,
      "sample": 1260,
      "tings": 1261,
      "exp": 1262,
      "{'": 1263,
      "parse": 1264,
      "filter": 1265,
      "be": 1266,
      "target": 1267,
      "=[": 1268,
      "gh": 1269,
      "IC": 1270,
      "sign": 1271,
      "Ġindex": 1272,
      "Id": 1273,
      "jango": 1274,
      "tern": 1275,
      "ude": 1276,
      "Ġend": 1277,
      "ps": 1278,
      "Ġsys": 1279,
      "ound": 1280,
      "quired": 1281,
      "table": 1282,
      "Ġtarget": 1283,
      "Ġnumber": 1284,
      "response": 1285,
      "ateg": 1286,
      "indow": 1287,
      "33": 1288,
      "step": 1289,
      "Ġerror": 1290,
      "File": 1291,
      "inal": 1292,
      "Ġdf": 1293,
      "Ġhelp": 1294,
      "Ġurl": 1295,
      "Ġmin": 1296,
      "77": 1297,
      "uple": 1298,
      "ctions": 1299,
      "Ġ10": 1300,
      "14": 1301,
      "mail": 1302,
      "dim": 1303,
      "olu": 1304,
      "utils": 1305,
      "Ġparser": 1306,
      "batch": 1307,
      "yst": 1308,
      "item": 1309,
      "Ġmessage": 1310,
      "env": 1311,
      "bug": 1312,
      "Ġstat": 1313,
      "ton": 1314,
      ".\"\"\"": 1315,
      "mbda": 1316,
      "tro": 1317,
      "Ġsp": 1318,
      "Ġplt": 1319,
      "of": 1320,
      "title": 1321,
      "ref": 1322,
      "ĠLicense": 1323,
      ">>": 1324,
      "token": 1325,
      "uc": 1326,
      "86": 1327,
      "Ġmethod": 1328,
      "Key": 1329,
      "Ġisinstance": 1330,
      "En": 1331,
      "AC": 1332,
      "50": 1333,
      "wait": 1334,
      "space": 1335,
      "Ġstate": 1336,
      "ost": 1337,
      "################################": 1338,
      "ids": 1339,
      "Ġmat": 1340,
      "rix": 1341,
      "lobal": 1342,
      "select": 1343,
      "Ġhas": 1344,
      "Se": 1345,
      "Ġ]": 1346,
      "led": 1347,
      "Ġ'''": 1348,
      "ain": 1349,
      "man": 1350,
      "Ġli": 1351,
      "lan": 1352,
      "ont": 1353,
      "img": 1354,
      "Ġtemp": 1355,
      "ormal": 1356,
      "ync": 1357,
      "tim": 1358,
      "Set": 1359,
      "PI": 1360,
      "ward": 1361,
      "Ġ8": 1362,
      "Model": 1363,
      "Ġver": 1364,
      "Ġcurrent": 1365,
      "Ġfloat": 1366,
      "items": 1367,
      "Ġrow": 1368,
      "pri": 1369,
      "cent": 1370,
      "xd": 1371,
      "https": 1372,
      "ong": 1373,
      "19": 1374,
      "','": 1375,
      "55": 1376,
      "event": 1377,
      "]]": 1378,
      "lete": 1379,
      "html": 1380,
      "act": 1381,
      "zer": 1382,
      "cy": 1383,
      "ĠReturn": 1384,
      "save": 1385,
      "Me": 1386,
      "nect": 1387,
      "\"),": 1388,
      "older": 1389,
      "66": 1390,
      "command": 1391,
      "24": 1392,
      "dataset": 1393,
      "tin": 1394,
      "stra": 1395,
      "Str": 1396,
      "ding": 1397,
      "Ġ7": 1398,
      "Ġspeci": 1399,
      "cre": 1400,
      "scal": 1401,
      "17": 1402,
      "ension": 1403,
      "IL": 1404,
      "Ser": 1405,
      "ĉĉĉĉ": 1406,
      "gin": 1407,
      "ystem": 1408,
      "18": 1409,
      "04": 1410,
      "Ġvalid": 1411,
      "sing": 1412,
      "orted": 1413,
      "LO": 1414,
      "Ġim": 1415,
      "ten": 1416,
      "content": 1417,
      "ĠX": 1418,
      "[:,": 1419,
      "Ġnumpy": 1420,
      "Ġvalues": 1421,
      "})": 1422,
      "Po": 1423,
      "mark": 1424,
      "mask": 1425,
      "Ar": 1426,
      "'))": 1427,
      "ody": 1428,
      "TE": 1429,
      "doc": 1430,
      "=(": 1431,
      "host": 1432,
      "idget": 1433,
      "Ġext": 1434,
      "Ġsuper": 1435,
      "atures": 1436,
      "Ġfe": 1437,
      "ich": 1438,
      "column": 1439,
      "ĠThis": 1440,
      "uto": 1441,
      "width": 1442,
      "var": 1443,
      "ING": 1444,
      "Ġbase": 1445,
      "uration": 1446,
      "property": 1447,
      "Ġlogging": 1448,
      "ream": 1449,
      "eta": 1450,
      "andler": 1451,
      "CO": 1452,
      "nn": 1453,
      "number": 1454,
      "igh": 1455,
      ")))": 1456,
      "tiv": 1457,
      "34": 1458,
      "Ġad": 1459,
      "Di": 1460,
      "30": 1461,
      "utton": 1462,
      "keys": 1463,
      "names": 1464,
      "range": 1465,
      "ĠĠĠĠĠĠĠĠĠĠĠĠĠĠ": 1466,
      "head": 1467,
      "Ġevent": 1468,
      "block": 1469,
      ")),": 1470,
      "spe": 1471,
      "task": 1472,
      "files": 1473,
      "my": 1474,
      "oth": 1475,
      "Ġsize": 1476,
      "ai": 1477,
      "ĠĠĠĠĠĠĠĠĠĠĠĠĠĠĠĠĠĠĠĠĠĠĠĠĠĠĠĠĠĠĠ": 1478,
      "face": 1479,
      "rence": 1480,
      "lable": 1481,
      "AD": 1482,
      "cor": 1483,
      "sk": 1484,
      "ner": 1485,
      "mission": 1486,
      "pack": 1487,
      "ql": 1488,
      "``": 1489,
      "UR": 1490,
      "100": 1491,
      "Ġfa": 1492,
      "context": 1493,
      "flow": 1494,
      "GE": 1495,
      "CH": 1496,
      "find": 1497,
      "the": 1498,
      "Ġtrans": 1499,
      "Ġstring": 1500,
      "ick": 1501,
      "ors": 1502,
      "Ð¾": 1503,
      "22": 1504,
      "Ġitem": 1505,
      "rectory": 1506,
      "sg": 1507,
      "weight": 1508,
      "Ġmo": 1509,
      "current": 1510,
      "SI": 1511,
      "mean": 1512,
      "ols": 1513,
      "channel": 1514,
      "ĠIf": 1515,
      "hould": 1516,
      "go": 1517,
      "ware": 1518,
      "Ġgener": 1519,
      "top": 1520,
      "ates": 1521,
      "cat": 1522,
      "Ġ9": 1523,
      "random": 1524,
      "Ġreg": 1525,
      "ome": 1526,
      "Ġdb": 1527,
      "mbed": 1528,
      "cri": 1529,
      "adata": 1530,
      "ld": 1531,
      "Ġlin": 1532,
      "module": 1533,
      "Ġupdate": 1534,
      "root": 1535,
      "Ġread": 1536,
      "Ġone": 1537,
      "Ġup": 1538,
      "close": 1539,
      "Ġbatch": 1540,
      "\"],": 1541,
      "msg": 1542,
      "Ġq": 1543,
      "Col": 1544,
      "Ġinter": 1545,
      "'s": 1546,
      "job": 1547,
      "csv": 1548,
      "Ġ},": 1549,
      "here": 1550,
      "ern": 1551,
      "fied": 1552,
      "Ġcode": 1553,
      "To": 1554,
      "Time": 1555,
      "Ġcal": 1556,
      "open": 1557,
      ")]": 1558,
      "pass": 1559,
      "resh": 1560,
      "Ġparams": 1561,
      "ĠReturns": 1562,
      "vis": 1563,
      "irst": 1564,
      "Ġ--": 1565,
      "nection": 1566,
      "poch": 1567,
      "ĠK": 1568,
      "device": 1569,
      "Ġused": 1570,
      "onent": 1571,
      "ting": 1572,
      "post": 1573,
      "Ġload": 1574,
      "Ġ),": 1575,
      "types": 1576,
      "rop": 1577,
      "Un": 1578,
      "Ġgra": 1579,
      "source": 1580,
      "location": 1581,
      "56": 1582,
      "sche": 1583,
      "Ġcommand": 1584,
      "Ġshould": 1585,
      "utes": 1586,
      "use": 1587,
      "Ġlogger": 1588,
      "DI": 1589,
      "utf": 1590,
      "ĠAr": 1591,
      "mary": 1592,
      "pu": 1593,
      "ager": 1594,
      "Ġother": 1595,
      "PO": 1596,
      "Ġ[\"": 1597,
      "idd": 1598,
      "session": 1599,
      "func": 1600,
      "De": 1601,
      "[-": 1602,
      "graph": 1603,
      "bot": 1604,
      "umi": 1605,
      "Ġformat": 1606,
      "ists": 1607,
      "Value": 1608,
      "not": 1609,
      "gen": 1610,
      "Ġcontain": 1611,
      "ization": 1612,
      "parser": 1613,
      "debug": 1614,
      "'):": 1615,
      "org": 1616,
      "Ġlo": 1617,
      "ĠY": 1618,
      "uid": 1619,
      "ative": 1620,
      "cli": 1621,
      "05": 1622,
      "Ġval": 1623,
      "last": 1624,
      "uster": 1625,
      "Ġrandom": 1626,
      "Ġcolumn": 1627,
      "mode": 1628,
      "ally": 1629,
      "Ġtra": 1630,
      "ename": 1631,
      "ĠSe": 1632,
      "Ġyou": 1633,
      "PE": 1634,
      "off": 1635,
      "ulumi": 1636,
      "ĠOptional": 1637,
      "201": 1638,
      "Ġ{\"": 1639,
      "ister": 1640,
      "Ġarray": 1641,
      "ä¸": 1642,
      "Ġpa": 1643,
      "Ġquery": 1644,
      "03": 1645,
      "AB": 1646,
      "cul": 1647,
      "clude": 1648,
      "Ġeach": 1649,
      "Ġcontext": 1650,
      "ĠUn": 1651,
      "exec": 1652,
      "Ġwhich": 1653,
      "les": 1654,
      "link": 1655,
      "Ġcall": 1656,
      "objects": 1657,
      "ng": 1658,
      "Ġpd": 1659,
      "Ġinstance": 1660,
      "gram": 1661,
      "Ġoption": 1662,
      "tribute": 1663,
      "Ġ,": 1664,
      "points": 1665,
      "entry": 1666,
      "fir": 1667,
      "ĠĠĠĠĠĠĠĠĠĠĠĠĠ": 1668,
      "Ġdataset": 1669,
      "Ġaction": 1670,
      "uni": 1671,
      "fier": 1672,
      "Get": 1673,
      "labels": 1674,
      "DO": 1675,
      "err": 1676,
      "copy": 1677,
      "gener": 1678,
      "Ġgroup": 1679,
      "asses": 1680,
      "project": 1681,
      "Ġclient": 1682,
      "Ġhave": 1683,
      "Ġdatetime": 1684,
      "ĠValue": 1685,
      "ED": 1686,
      "MP": 1687,
      "Ġversion": 1688,
      "ãģ": 1689,
      "ĠĠĠĠĠĠĠĠĠĠ": 1690,
      "Ġele": 1691,
      "page": 1692,
      "89": 1693,
      "Ġfiles": 1694,
      "Ġexpected": 1695,
      "Ð°": 1696,
      "::": 1697,
      "Ġsample": 1698,
      "tadata": 1699,
      "serv": 1700,
      "ustom": 1701,
      "36": 1702,
      "level": 1703,
      "Ġwhile": 1704,
      "io": 1705,
      "layers": 1706,
      "round": 1707,
      "Ġ``": 1708,
      "Ġobj": 1709,
      "ference": 1710,
      "viron": 1711,
      "Ġar": 1712,
      "Text": 1713,
      "Ġpoint": 1714,
      "Ġarg": 1715,
      "rt": 1716,
      "UL": 1717,
      "function": 1718,
      "Ġ(\"": 1719,
      "bose": 1720,
      "rap": 1721,
      "server": 1722,
      "ui": 1723,
      "lower": 1724,
      "Bo": 1725,
      "ĠJ": 1726,
      "iven": 1727,
      "'].": 1728,
      "Ġcolor": 1729,
      "cf": 1730,
      "delete": 1731,
      "Ġawait": 1732,
      "stars": 1733,
      "down": 1734,
      "ĠTest": 1735,
      "replace": 1736,
      "dep": 1737,
      "tail": 1738,
      "licy": 1739,
      "CT": 1740,
      "oname": 1741,
      "tf": 1742,
      "28": 1743,
      "tag": 1744,
      "Ġcount": 1745,
      "Ġonly": 1746,
      "search": 1747,
      "sent": 1748,
      "ized": 1749,
      "lication": 1750,
      "ĠÐ": 1751,
      "Ġcopy": 1752,
      "Ġcor": 1753,
      "ĠList": 1754,
      "grid": 1755,
      "HE": 1756,
      "reak": 1757,
      "Config": 1758,
      "arning": 1759,
      "Ġpri": 1760,
      "reponame": 1761,
      "Vi": 1762,
      "quence": 1763,
      "Ġwork": 1764,
      "Ġmock": 1765,
      "assi": 1766,
      "fy": 1767,
      "tinue": 1768,
      "********": 1769,
      "ning": 1770,
      "sor": 1771,
      "*-": 1772,
      "txt": 1773,
      "Ġdjango": 1774,
      "Ġfirst": 1775,
      "vo": 1776,
      "pha": 1777,
      "('\\": 1778,
      "ear": 1779,
      "'t": 1780,
      "Ġunder": 1781,
      "day": 1782,
      "sco": 1783,
      "gr": 1784,
      "Ðµ": 1785,
      "template": 1786,
      "description": 1787,
      "std": 1788,
      "ernel": 1789,
      "Input": 1790,
      "Ġbool": 1791,
      "TT": 1792,
      "75": 1793,
      "]))": 1794,
      "vector": 1795,
      "~~": 1796,
      "results": 1797,
      "over": 1798,
      ")):": 1799,
      "ponse": 1800,
      "coder": 1801,
      "vert": 1802,
      "place": 1803,
      "Ġdoc": 1804,
      "Ġ-*-": 1805,
      "Ġimg": 1806,
      "Ġag": 1807,
      "show": 1808,
      "IG": 1809,
      "35": 1810,
      "84": 1811,
      "uccess": 1812,
      "vid": 1813,
      "29": 1814,
      "Cl": 1815,
      "als": 1816,
      "duct": 1817,
      "vide": 1818,
      "send": 1819,
      "ĠException": 1820,
      "store": 1821,
      "lag": 1822,
      "Ġsource": 1823,
      "ib": 1824,
      "now": 1825,
      "Ġ],": 1826,
      "tx": 1827,
      "total": 1828,
      "initial": 1829,
      "Ġcv": 1830,
      "options": 1831,
      "Ġstatus": 1832,
      "Path": 1833,
      "Ġresults": 1834,
      "ĠPar": 1835,
      "bar": 1836,
      "Base": 1837,
      "andle": 1838,
      "nt": 1839,
      "lines": 1840,
      "']['": 1841,
      "TH": 1842,
      "igr": 1843,
      "\"))": 1844,
      "Ġnet": 1845,
      "logger": 1846,
      "req": 1847,
      "Ġ<=": 1848,
      "ches": 1849,
      "UN": 1850,
      "strip": 1851,
      "connect": 1852,
      "ous": 1853,
      "pop": 1854,
      "Lo": 1855,
      "dition": 1856,
      "Ġmain": 1857,
      "Ġrequired": 1858,
      "IS": 1859,
      "score": 1860,
      "splay": 1861,
      "stamp": 1862,
      "ĠValueError": 1863,
      "Ġtable": 1864,
      "Frame": 1865,
      "44": 1866,
      "Ġaxis": 1867,
      "cc": 1868,
      "={": 1869,
      "ating": 1870,
      "ice": 1871,
      "Ġmsg": 1872,
      "unk": 1873,
      "match": 1874,
      "Ġexp": 1875,
      "06": 1876,
      "uage": 1877,
      "axis": 1878,
      "lean": 1879,
      "queue": 1880,
      "Ġfilename": 1881,
      "Ġnn": 1882,
      "27": 1883,
      "ĠPro": 1884,
      "Ġenum": 1885,
      "Ġdtype": 1886,
      "ping": 1887,
      "Ġcontinue": 1888,
      "uted": 1889,
      "lambda": 1890,
      "ION": 1891,
      "Ġglobal": 1892,
      "User": 1893,
      "Ġback": 1894,
      "ped": 1895,
      "88": 1896,
      "Form": 1897,
      "Ġtask": 1898,
      "cls": 1899,
      "TR": 1900,
      "ãĥ": 1901,
      "xy": 1902,
      "ell": 1903,
      "struct": 1904,
      "Log": 1905,
      "Ġmake": 1906,
      "anguage": 1907,
      "Ġmust": 1908,
      "Ġwhen": 1909,
      "ï¼": 1910,
      "left": 1911,
      "ns": 1912,
      "Up": 1913,
      "Ġcontent": 1914,
      "23": 1915,
      "metri": 1916,
      "Ġmodule": 1917,
      "teger": 1918,
      "settings": 1919,
      "attern": 1920,
      "Exception": 1921,
      "Ġmatch": 1922,
      "Node": 1923,
      "(_": 1924,
      "lease": 1925,
      "\"])": 1926,
      "Ġover": 1927,
      "bound": 1928,
      "ched": 1929,
      "mplement": 1930,
      "ĠSt": 1931,
      "conv": 1932,
      "Ġ&": 1933,
      "Ġtotal": 1934,
      "www": 1935,
      "Ġany": 1936,
      "OT": 1937,
      "Ġshape": 1938,
      "String": 1939,
      "util": 1940,
      "service": 1941,
      "Ġmay": 1942,
      "96": 1943,
      "ential": 1944,
      "riter": 1945,
      "cho": 1946,
      "fields": 1947,
      "KE": 1948,
      "Ġplot": 1949,
      "ĠData": 1950,
      "cache": 1951,
      "Ġ'.": 1952,
      "parent": 1953,
      "Ġ'/": 1954,
      "cond": 1955,
      "ises": 1956,
      "ĠIN": 1957,
      "ategory": 1958,
      "Ġhead": 1959,
      "Ġkwargs": 1960,
      "itle": 1961,
      "Ġtag": 1962,
      "address": 1963,
      "Ġsk": 1964,
      "ias": 1965,
      "ob": 1966,
      "Ġstep": 1967,
      "sys": 1968,
      "rate": 1969,
      "Ġgiven": 1970,
      "ffer": 1971,
      "Ġdim": 1972,
      "Ġ>=": 1973,
      "ake": 1974,
      "The": 1975,
      "fore": 1976,
      "26": 1977,
      "ĠOR": 1978,
      "build": 1979,
      "21": 1980,
      "del": 1981,
      "Ġmode": 1982,
      "Ġ>>>": 1983,
      "change": 1984,
      "zeros": 1985,
      "mock": 1986,
      "Ġed": 1987,
      "Ġdistri": 1988,
      "ĠĠĠĠĠĠĠĠĠĠĠĠĠĠĠĠĠ": 1989,
      "iled": 1990,
      "python": 1991,
      "Ġlast": 1992,
      "du": 1993,
      "script": 1994,
      "aly": 1995,
      "af": 1996,
      "07": 1997,
      "Object": 1998,
      "peri": 1999,
      "src": 2000,
      "37": 2001,
      "Ġtoken": 2002,
      "Ġsum": 2003,
      "Ġdep": 2004,
      "scale": 2005,
      "ility": 2006,
      "ĠCo": 2007,
      "dic": 2008,
      "Ġfilter": 2009,
      "No": 2010,
      "rit": 2011,
      "Ġprocess": 2012,
      "</": 2013,
      "ãĤ": 2014,
      "ĠAN": 2015,
      "(*": 2016,
      "gment": 2017,
      "ive": 2018,
      "wh": 2019,
      "make": 2020,
      "dices": 2021,
      "Ġ100": 2022,
      "wo": 2023,
      "Ġoper": 2024,
      "pk": 2025,
      "board": 2026,
      "ĠAn": 2027,
      "sv": 2028,
      "lugin": 2029,
      "next": 2030,
      "stack": 2031,
      "Com": 2032,
      "unit": 2033,
      "river": 2034,
      "game": 2035,
      "Ġinst": 2036,
      "Ġauth": 2037,
      "Ġword": 2038,
      "can": 2039,
      ".\")": 2040,
      "Ġsave": 2041,
      "erate": 2042,
      "formation": 2043,
      "angle": 2044,
      "Ġdescription": 2045,
      "Ġform": 2046,
      ",-": 2047,
      "'''": 2048,
      "matrix": 2049,
      "ose": 2050,
      ":`": 2051,
      "cmd": 2052,
      "prefix": 2053,
      "Ġloss": 2054,
      "View": 2055,
      "Widget": 2056,
      "first": 2057,
      "Add": 2058,
      "perties": 2059,
      "email": 2060,
      "verse": 2061,
      "ÑĤ": 2062,
      "97": 2063,
      "iss": 2064,
      "features": 2065,
      "Ġorder": 2066,
      "Ġbreak": 2067,
      "fication": 2068,
      "pred": 2069,
      "ics": 2070,
      "olution": 2071,
      "CON": 2072,
      "Ð¸": 2073,
      "____": 2074,
      "eval": 2075,
      "Ġpython": 2076,
      "85": 2077,
      "ĠPy": 2078,
      "ster": 2079,
      "]['": 2080,
      "pc": 2081,
      "Ġiter": 2082,
      "lection": 2083,
      "unter": 2084,
      "Num": 2085,
      "datetime": 2086,
      "Ġfound": 2087,
      "orage": 2088,
      "ĠĠĠĠĠĠĠĠĠĠĠĠĠĠĠĠĠĠĠĠ": 2089,
      "ftware": 2090,
      "straint": 2091,
      "Dict": 2092,
      "At": 2093,
      "Ġqu": 2094,
      "Ġargument": 2095,
      "200": 2096,
      "(-": 2097,
      "yle": 2098,
      "idden": 2099,
      "40": 2100,
      "limit": 2101,
      "ATE": 2102,
      "Ġvariable": 2103,
      "imum": 2104,
      "':{'": 2105,
      "ify": 2106,
      "tensor": 2107,
      "Ġnext": 2108,
      "dump": 2109,
      "bl": 2110,
      "LA": 2111,
      "trol": 2112,
      "tributes": 2113,
      "true": 2114,
      "pol": 2115,
      "Ac": 2116,
      "body": 2117,
      "Ġsession": 2118,
      "mt": 2119,
      "ĠĠĠĠĠĠĠĠĠĠĠĠĠĠĠĠĠĠĠĠĠĠĠĠĠĠĠĠĠĠĠĠĠĠĠ": 2120,
      "ctionary": 2121,
      "Ġpack": 2122,
      "Ġframe": 2123,
      "SS": 2124,
      "Ġ201": 2125,
      "ĠĠĠĠĠĠĠĠĠĠĠĠĠĠĠĠĠĠĠĠĠ": 2126,
      "fn": 2127,
      "ultip": 2128,
      "Ġusing": 2129,
      "]),": 2130,
      "cket": 2131,
      "wer": 2132,
      "ract": 2133,
      "Ġob": 2134,
      "FF": 2135,
      "lation": 2136,
      "parameters": 2137,
      "serial": 2138,
      "Ð¾Ð": 2139,
      "static": 2140,
      "remove": 2141,
      "87": 2142,
      "option": 2143,
      "ical": 2144,
      "Ġfind": 2145,
      "height": 2146,
      "Ġweight": 2147,
      "HO": 2148,
      "Response": 2149,
      "mer": 2150,
      "Ġuti": 2151,
      "39": 2152,
      "Ġuni": 2153,
      "Ġ20": 2154,
      "ocket": 2155,
      "conf": 2156,
      "dis": 2157,
      "================================": 2158,
      "Ġinitial": 2159,
      "45": 2160,
      "\"):": 2161,
      "header": 2162,
      "Ġlocal": 2163,
      "Ġenumerate": 2164,
      "folder": 2165,
      "TO": 2166,
      "Ġblock": 2167,
      "Ġunit": 2168,
      "position": 2169,
      "olume": 2170,
      "Ġmap": 2171,
      "Ġinto": 2172,
      "char": 2173,
      "seq": 2174,
      "password": 2175,
      "annot": 2176,
      "mber": 2177,
      "Case": 2178,
      "Ġoptions": 2179,
      "Ġmask": 2180,
      "abs": 2181,
      "Ġdevice": 2182,
      "Stat": 2183,
      "any": 2184,
      "entity": 2185,
      "âĶ": 2186,
      "cript": 2187,
      "patch": 2188,
      "------": 2189,
      "Ġchar": 2190,
      "variable": 2191,
      "Ġscal": 2192,
      "ĠGet": 2193,
      "\\\\": 2194,
      "({": 2195,
      "exists": 2196,
      "Le": 2197,
      "ini": 2198,
      "TY": 2199,
      "aw": 2200,
      "anti": 2201,
      "username": 2202,
      "ie": 2203,
      "ources": 2204,
      "record": 2205,
      "sup": 2206,
      "Ġright": 2207,
      "ffe": 2208,
      "LI": 2209,
      "ency": 2210,
      "MO": 2211,
      "hy": 2212,
      "('/": 2213,
      "tmp": 2214,
      "Request": 2215,
      "ater": 2216,
      "pub": 2217,
      "95": 2218,
      "Lay": 2219,
      "Ġdel": 2220,
      ".,": 2221,
      "')},": 2222,
      "fit": 2223,
      "transform": 2224,
      "edge": 2225,
      "Not": 2226,
      "ĠDi": 2227,
      "ailable": 2228,
      "ants": 2229,
      "'},": 2230,
      "coord": 2231,
      "itor": 2232,
      "Ġchange": 2233,
      "norm": 2234,
      "leep": 2235,
      "ink": 2236,
      "verage": 2237,
      "Ġcls": 2238,
      "Ġlength": 2239,
      "cu": 2240,
      "Ġparameters": 2241,
      "Ġlambda": 2242,
      "Parser": 2243,
      "Ġverbose": 2244,
      "Ġbuild": 2245,
      "coding": 2246,
      "let": 2247,
      "epoch": 2248,
      "nodes": 2249,
      "Ġ'<": 2250,
      "Ġlabels": 2251,
      "60": 2252,
      "ĠTO": 2253,
      "abel": 2254,
      "').": 2255,
      "resource": 2256,
      "hed": 2257,
      "(__": 2258,
      "su": 2259,
      "ful": 2260,
      "65": 2261,
      "ĠĠĠĠĠĠĠĠĠĠĠĠĠĠĠĠĠĠ": 2262,
      "Sh": 2263,
      "Char": 2264,
      "normal": 2265,
      "Ġab": 2266,
      "Ġoff": 2267,
      "child": 2268,
      "Ġroot": 2269,
      "case": 2270,
      "Ġserver": 2271,
      "Fa": 2272,
      "sy": 2273,
      "torch": 2274,
      "network": 2275,
      "ents": 2276,
      "classes": 2277,
      "Ġdoes": 2278,
      "SER": 2279,
      "efault": 2280,
      "ayload": 2281,
      "Ġsign": 2282,
      "admin": 2283,
      "Ġport": 2284,
      "FA": 2285,
      "way": 2286,
      "ollow": 2287,
      "ene": 2288,
      "sw": 2289,
      "const": 2290,
      "ĠĠĠĠĠĠĠĠĠĠĠĠĊ": 2291,
      "author": 2292,
      "rand": 2293,
      "Ġapi": 2294,
      "Ġfields": 2295,
      "###": 2296,
      "ÑĢ": 2297,
      "sim": 2298,
      "ĠSet": 2299,
      "etch": 2300,
      "ĠĠĠĠĠĠĠĠĠĠĠĠĠĠĠĠĠĠĠĠĠĠĠĠĠ": 2301,
      "Ġpage": 2302,
      "Ġret": 2303,
      "Comp": 2304,
      "Ġtitle": 2305,
      "67": 2306,
      "Ġproject": 2307,
      "columns": 2308,
      "enter": 2309,
      "ride": 2310,
      "Ġchannel": 2311,
      "Ġparse": 2312,
      "Ġgo": 2313,
      "offset": 2314,
      "'][": 2315,
      "Ġ...": 2316,
      "license": 2317,
      "ĠĠĠĠĠĠĠĠĠĠĠĠĠĠĠĠĠĠĠĠĠĠ": 2318,
      "Ġtuple": 2319,
      "embed": 2320,
      "107": 2321,
      "IP": 2322,
      "Ġtensor": 2323,
      "ssi": 2324,
      "ĠDe": 2325,
      "Ġty": 2326,
      "nder": 2327,
      "stream": 2328,
      "Out": 2329,
      "Line": 2330,
      "spec": 2331,
      "Ġinfo": 2332,
      "ling": 2333,
      "Ġcase": 2334,
      ")[": 2335,
      "CA": 2336,
      "Ġav": 2337,
      "abled": 2338,
      "Ġhost": 2339,
      "CE": 2340,
      "dist": 2341,
      "Ġbin": 2342,
      "ersion": 2343,
      "tree": 2344,
      ".')": 2345,
      "Ġ--------": 2346,
      "90": 2347,
      "register": 2348,
      "XXXX": 2349,
      "Ġexist": 2350,
      "Ġfig": 2351,
      "plt": 2352,
      "reshold": 2353,
      "TION": 2354,
      "side": 2355,
      "Size": 2356,
      "\",\"": 2357,
      "Image": 2358,
      "Ġtop": 2359,
      "system": 2360,
      "ĠArgs": 2361,
      "Ġparent": 2362,
      "Date": 2363,
      "Ġbut": 2364,
      "exception": 2365,
      "ators": 2366,
      "ca": 2367,
      "TER": 2368,
      "account": 2369,
      "buted": 2370,
      "State": 2371,
      "Ġlimit": 2372,
      "other": 2373,
      "Ġorig": 2374,
      "window": 2375,
      "hel": 2376,
      "('--": 2377,
      "Ġ\",": 2378,
      "samples": 2379,
      "Ġselect": 2380,
      "Info": 2381,
      "Ġrequests": 2382,
      "Ġ):": 2383,
      "Ġwidth": 2384,
      "Ġneed": 2385,
      "LU": 2386,
      "Ġresource": 2387,
      "ĠUser": 2388,
      "very": 2389,
      "fer": 2390,
      "cv": 2391,
      "Al": 2392,
      "feature": 2393,
      "ĠRes": 2394,
      "çļ": 2395,
      "Ġdest": 2396,
      "cap": 2397,
      ":]": 2398,
      "Message": 2399,
      "pr": 2400,
      "Create": 2401,
      "stop": 2402,
      "çļĦ": 2403,
      "TTP": 2404,
      "rection": 2405,
      "swith": 2406,
      "direct": 2407,
      "47": 2408,
      "EMA": 2409,
      "Ġctx": 2410,
      "ote": 2411,
      "ĠOF": 2412,
      "gine": 2413,
      "execute": 2414,
      "Ġcod": 2415,
      "31": 2416,
      "Ġhttp": 2417,
      "ĠCreate": 2418,
      "Ġgraph": 2419,
      "timizer": 2420,
      "Ġexec": 2421,
      "metadata": 2422,
      "An": 2423,
      "tran": 2424,
      "ved": 2425,
      "meta": 2426,
      "usr": 2427,
      "Ġview": 2428,
      "Ð½": 2429,
      "zh": 2430,
      "pen": 2431,
      "Ġtri": 2432,
      "ik": 2433,
      "vices": 2434,
      "hash": 2435,
      "Ġpulumi": 2436,
      "lags": 2437,
      "ĠType": 2438,
      "has": 2439,
      "åı": 2440,
      "08": 2441,
      "words": 2442,
      "PAT": 2443,
      "headers": 2444,
      "only": 2445,
      "environ": 2446,
      "ide": 2447,
      "ined": 2448,
      "Ġdirectory": 2449,
      "stru": 2450,
      "numpy": 2451,
      "package": 2452,
      "orig": 2453,
      "Ġserial": 2454,
      "reen": 2455,
      "KEY": 2456,
      "full": 2457,
      "sis": 2458,
      "Ġph": 2459,
      "dev": 2460,
      "Ġ'__": 2461,
      "peline": 2462,
      "Ġeval": 2463,
      "mod": 2464,
      "Ġlevel": 2465,
      "Ġsettings": 2466,
      "tools": 2467,
      "uture": 2468,
      "nore": 2469,
      "He": 2470,
      "9999": 2471,
      "sig": 2472,
      "rs": 2473,
      "adding": 2474,
      "contain": 2475,
      "dot": 2476,
      "ticle": 2477,
      "Ġrecord": 2478,
      "App": 2479,
      "ĠCON": 2480,
      "Ġ''": 2481,
      "auto": 2482,
      "conds": 2483,
      "bit": 2484,
      "Ġ\"/": 2485,
      "ĠID": 2486,
      "ORD": 2487,
      "Ġbot": 2488,
      "channels": 2489,
      "inputs": 2490,
      "active": 2491,
      "Sub": 2492,
      "kens": 2493,
      "exit": 2494,
      "hist": 2495,
      "domain": 2496,
      "part": 2497,
      "cer": 2498,
      "images": 2499,
      "Ġcoding": 2500,
      "chema": 2501,
      "ready": 2502,
      "vision": 2503,
      "ĠĠĠĠĠĠĠĠĠĠĠĠĠĠĠĠĠĠĠĠĠĠĠĠĠĠĠĠ": 2504,
      "Ġ'\\": 2505,
      "EL": 2506,
      "fs": 2507,
      "Ġasync": 2508,
      "Ñģ": 2509,
      "Ad": 2510,
      "acy": 2511,
      "oper": 2512,
      "Ġidx": 2513,
      "Ġsc": 2514,
      "Box": 2515,
      "tails": 2516,
      "ingle": 2517,
      "Ġ\".": 2518,
      "Ġ::": 2519,
      "mal": 2520,
      "pec": 2521,
      "book": 2522,
      "////": 2523,
      "Ġwas": 2524,
      "bytes": 2525,
      "AP": 2526,
      "rule": 2527,
      "ENT": 2528,
      ">',": 2529,
      "enu": 2530,
      "resp": 2531,
      "inst": 2532,
      "Ġpost": 2533,
      "Client": 2534,
      "Ġwrite": 2535,
      "example": 2536,
      "Ġmy": 2537,
      "ular": 2538,
      "itch": 2539,
      "Ġ{},": 2540,
      "ML": 2541,
      "57": 2542,
      "ba": 2543,
      "kn": 2544,
      "Ġsame": 2545,
      "ctx": 2546,
      "ternal": 2547,
      "igrations": 2548,
      "Ġimp": 2549,
      "Ġwhere": 2550,
      "dio": 2551,
      "element": 2552,
      "pytest": 2553,
      "VER": 2554,
      "Ġact": 2555,
      "Ġ16": 2556,
      "09": 2557,
      "Ġ',": 2558,
      "weights": 2559,
      "=['": 2560,
      "Ġ[],": 2561,
      "ank": 2562,
      "Ġparameter": 2563,
      "Item": 2564,
      "ĠQt": 2565,
      "Ġallow": 2566,
      "Ġsome": 2567,
      "']:": 2568,
      "play": 2569,
      "Ġhttps": 2570,
      "Ġlayer": 2571,
      "sn": 2572,
      "alid": 2573,
      "\"{": 2574,
      "Ġenv": 2575,
      "Ġref": 2576,
      "Ġsu": 2577,
      "LL": 2578,
      "cp": 2579,
      "delta": 2580,
      "lip": 2581,
      "Ġheader": 2582,
      "atio": 2583,
      "38": 2584,
      "EX": 2585,
      "stats": 2586,
      "mpty": 2587,
      "Ġthen": 2588,
      "opyright": 2589,
      "fter": 2590,
      "argv": 2591,
      "png": 2592,
      "medi": 2593,
      "Ġrender": 2594,
      "encode": 2595,
      "equal": 2596,
      "handler": 2597,
      "sets": 2598,
      "OP": 2599,
      "lank": 2600,
      "Ġpytest": 2601,
      "ogle": 2602,
      "uuid": 2603,
      "'\\": 2604,
      "login": 2605,
      "missions": 2606,
      "schema": 2607,
      "Ġopt": 2608,
      "uri": 2609,
      "mory": 2610,
      "tick": 2611,
      "Ġmetri": 2612,
      "Bu": 2613,
      "bool": 2614,
      "49": 2615,
      "grad": 2616,
      "anager": 2617,
      "Ġjob": 2618,
      "keep": 2619,
      "ker": 2620,
      "Group": 2621,
      "#!": 2622,
      "Ġbet": 2623,
      "Ġ200": 2624,
      "Ġdown": 2625,
      "center": 2626,
      "TestCase": 2627,
      "sq": 2628,
      "åĪ": 2629,
      "Qt": 2630,
      "US": 2631,
      "reshape": 2632,
      "Ġsearch": 2633,
      "common": 2634,
      "Ġdis": 2635,
      "Code": 2636,
      "ASS": 2637,
      "ross": 2638,
      "gest": 2639,
      "Ġtemplate": 2640,
      "(\"\\": 2641,
      "]+": 2642,
      "Qu": 2643,
      "video": 2644,
      "UP": 2645,
      "Ġheaders": 2646,
      "lish": 2647,
      "Ġcoord": 2648,
      "48": 2649,
      "Ġ..": 2650,
      "EMAIL": 2651,
      "ither": 2652,
      "Ġyield": 2653,
      "decode": 2654,
      "Event": 2655,
      "na": 2656,
      "latform": 2657,
      "ĠĠĠĠĠĠĠĠĠĠĠĠĠĠĠĠĠĠĠĠĠĠĠĠĠĠ": 2658,
      "Ġutf": 2659,
      "Ġcmd": 2660,
      "Ġmath": 2661,
      ").__": 2662,
      "PATH": 2663,
      "ĠWe": 2664,
      "pool": 2665,
      "ĠMe": 2666,
      "manager": 2667,
      "Ġ\"\"": 2668,
      "qa": 2669,
      "ATA": 2670,
      "layout": 2671,
      "access": 2672,
      "mote": 2673,
      "istr": 2674,
      "Ġresp": 2675,
      "xml": 2676,
      "ULT": 2677,
      "Ġnormal": 2678,
      "Ġtmp": 2679,
      "Return": 2680,
      "gt": 2681,
      "pl": 2682,
      "asic": 2683,
      "cast": 2684,
      "ithub": 2685,
      "ĠParameters": 2686,
      "expr": 2687,
      "Ġtransform": 2688,
      "tocol": 2689,
      "Ġvi": 2690,
      "prot": 2691,
      "Ġshow": 2692,
      "pression": 2693,
      "Ġoptional": 2694,
      "ween": 2695,
      "Ġkernel": 2696,
      "ulation": 2697,
      "Ġentry": 2698,
      "Py": 2699,
      "Label": 2700,
      "sort": 2701,
      "med": 2702,
      "else": 2703,
      "Ġnames": 2704,
      "Index": 2705,
      "Net": 2706,
      "Ġmore": 2707,
      "troll": 2708,
      "Ġleft": 2709,
      "Ġpos": 2710,
      "98": 2711,
      "opt": 2712,
      "Tensor": 2713,
      "}\")": 2714,
      "Ġfollow": 2715,
      "click": 2716,
      "Th": 2717,
      "OL": 2718,
      "gress": 2719,
      "Ġ'-": 2720,
      "ground": 2721,
      "cell": 2722,
      "Ġpackage": 2723,
      "RAN": 2724,
      "\"][\"": 2725,
      "FT": 2726,
      "expected": 2727,
      "ift": 2728,
      "Ġthread": 2729,
      "assertTrue": 2730,
      "required": 2731,
      "tom": 2732,
      "Ġspecified": 2733,
      "Ġfont": 2734,
      "rot": 2735,
      "Handler": 2736,
      "Ġ'--": 2737,
      "tests": 2738,
      "display": 2739,
      "comple": 2740,
      "Ġ\"\\": 2741,
      "CharField": 2742,
      "sm": 2743,
      "actions": 2744,
      "Ġdistributed": 2745,
      "Ġsorted": 2746,
      "raph": 2747,
      "directory": 2748,
      "cluster": 2749,
      "'}": 2750,
      "Ġnetwork": 2751,
      "Ġpassword": 2752,
      "Ġlink": 2753,
      "Ġsrc": 2754,
      "Ġter": 2755,
      "Ġlines": 2756,
      "/{": 2757,
      "Ġclo": 2758,
      "Ġtraining": 2759,
      "ection": 2760,
      "46": 2761,
      "NO": 2762,
      "gument": 2763,
      "ins": 2764,
      "wise": 2765,
      "shot": 2766,
      "seed": 2767,
      "Ġexample": 2768,
      "Ġ12": 2769,
      "ision": 2770,
      "entifier": 2771,
      "amer": 2772,
      "route": 2773,
      "mbol": 2774,
      "Ġelement": 2775,
      "sleep": 2776,
      "Button": 2777,
      "dtype": 2778,
      "Run": 2779,
      "=-": 2780,
      "rest": 2781,
      "culate": 2782,
      "__':": 2783,
      "\").": 2784,
      "Ġsim": 2785,
      "Ġmark": 2786,
      "dt": 2787,
      "ek": 2788,
      "Ġ15": 2789,
      "URL": 2790,
      "ared": 2791,
      "}\"": 2792,
      "DIR": 2793,
      "]):": 2794,
      "Ġtyping": 2795,
      "andas": 2796,
      "MS": 2797,
      "ason": 2798,
      "arr": 2799,
      "Check": 2800,
      "DB": 2801,
      "button": 2802,
      "cfg": 2803,
      "wd": 2804,
      "Ġhere": 2805,
      "mplemented": 2806,
      "Ġstd": 2807,
      "aml": 2808,
      "sa": 2809,
      "Ġlib": 2810,
      "cies": 2811,
      "#!/": 2812,
      "pulumi": 2813,
      "/',": 2814,
      "diff": 2815,
      "lon": 2816,
      "rows": 2817,
      "alpha": 2818,
      "Ġ----------": 2819,
      "Ġheight": 2820,
      "Ġedge": 2821,
      "Ġnon": 2822,
      "indices": 2823,
      "alog": 2824,
      "Ġposition": 2825,
      "Ġpi": 2826,
      "tems": 2827,
      "Loc": 2828,
      "IO": 2829,
      "ĠGener": 2830,
      "Ġservice": 2831,
      "cry": 2832,
      "lask": 2833,
      "HT": 2834,
      "component": 2835,
      "Ele": 2836,
      "Ġzip": 2837,
      "less": 2838,
      "RA": 2839,
      "Des": 2840,
      "django": 2841,
      "Result": 2842,
      "Ġinit": 2843,
      "tags": 2844,
      "Ġmatrix": 2845,
      "SC": 2846,
      "GET": 2847,
      "Per": 2848,
      "quire": 2849,
      "Sp": 2850,
      "ĠSee": 2851,
      "lice": 2852,
      "Ġsetup": 2853,
      "âĶĢ": 2854,
      "ged": 2855,
      "gy": 2856,
      "region": 2857,
      "oo": 2858,
      "oken": 2859,
      "steps": 2860,
      "Ġdictionary": 2861,
      "factor": 2862,
      "Class": 2863,
      "Ġcho": 2864,
      "year": 2865,
      "ï¼Į": 2866,
      "API": 2867,
      "Or": 2868,
      "Ġbody": 2869,
      "ero": 2870,
      "ĠStr": 2871,
      "QU": 2872,
      "Ġyour": 2873,
      "Ra": 2874,
      "ET": 2875,
      "ĠĠĠĠĠĠĠĠĠĠĠĠĠĠĠĠĠĠĠĠĠĠĠĠĠĠĠĠĠ": 2876,
      "timestamp": 2877,
      "rapper": 2878,
      "lack": 2879,
      "59": 2880,
      "lied": 2881,
      "\"].": 2882,
      "By": 2883,
      "Ġdatabase": 2884,
      "Ġabs": 2885,
      "errors": 2886,
      "dest": 2887,
      "loader": 2888,
      "dat": 2889,
      "Ġgenerate": 2890,
      "NT": 2891,
      "Ġraw": 2892,
      "Status": 2893,
      "-------": 2894,
      "uint": 2895,
      "Ġbox": 2896,
      "ause": 2897,
      "connection": 2898,
      "ĠCopyright": 2899,
      "Is": 2900,
      "42": 2901,
      "Window": 2902,
      "ĠTODO": 2903,
      "Ġinformation": 2904,
      "ół": 2905,
      "acc": 2906,
      "Ġremove": 2907,
      "global": 2908,
      "light": 2909,
      "pair": 2910,
      "Ġmean": 2911,
      "zip": 2912,
      "Ġfeature": 2913,
      "ĠAPI": 2914,
      "Ġ'%": 2915,
      "plotlib": 2916,
      "Ġgrid": 2917,
      "Ġchild": 2918,
      "ĠCheck": 2919,
      "setup": 2920,
      "Inter": 2921,
      "orld": 2922,
      "++": 2923,
      "report": 2924,
      "EC": 2925,
      "math": 2926,
      ",'": 2927,
      ".\"": 2928,
      "stract": 2929,
      "Number": 2930,
      "âķ": 2931,
      "UM": 2932,
      "Ġsy": 2933,
      "vec": 2934,
      "tivation": 2935,
      "tity": 2936,
      "foo": 2937,
      "div": 2938,
      "For": 2939,
      "PRO": 2940,
      "rary": 2941,
      "ones": 2942,
      "ĠIS": 2943,
      "Pre": 2944,
      "Ġattr": 2945,
      "Ġdocument": 2946,
      "ATION": 2947,
      "ination": 2948,
      "Reg": 2949,
      "track": 2950,
      "gg": 2951,
      "ĠĠĠĠĠĠĠĠĠĠĠĠĠĠĠĠĠĠĠĠĠĠĠĠĠĠĠĠĠĠĠĠĠĠĠĠĠĠĠ": 2952,
      "Ġnoqa": 2953,
      "Ġsplit": 2954,
      "prob": 2955,
      "staticmethod": 2956,
      "redential": 2957,
      "FILE": 2958,
      "Ġspecific": 2959,
      "pg": 2960,
      "Trans": 2961,
      "ĠKey": 2962,
      "imp": 2963,
      "Ġthan": 2964,
      "Ġpoints": 2965,
      "Ġinputs": 2966,
      "æķ": 2967,
      "eff": 2968,
      "tact": 2969,
      "Ġold": 2970,
      "troller": 2971,
      "sql": 2972,
      "ultiple": 2973,
      "pattern": 2974,
      "Ġutils": 2975,
      "font": 2976,
      "drop": 2977,
      "Ġconst": 2978,
      "ĠEn": 2979,
      "Ġafter": 2980,
      "bution": 2981,
      "fg": 2982,
      "profile": 2983,
      "POST": 2984,
      "Ġsend": 2985,
      "real": 2986,
      "Ġap": 2987,
      "ĠAdd": 2988,
      "web": 2989,
      "vider": 2990,
      "WORD": 2991,
      "ves": 2992,
      "~~~~": 2993,
      "tn": 2994,
      "Ġig": 2995,
      "ranch": 2996,
      "ĠCol": 2997,
      "uff": 2998,
      "Ġfull": 2999,
      "ops": 3000,
      "ĠPython": 3001,
      "question": 3002,
      "ĠFor": 3003,
      "ĠPath": 3004,
      "Ġerr": 3005,
      "aa": 3006,
      "insert": 3007,
      "paths": 3008,
      "Ġ'_": 3009,
      "learn": 3010,
      "tivity": 3011,
      "ret": 3012,
      "Auth": 3013,
      "entic": 3014,
      "Ġpub": 3015,
      "ness": 3016,
      "rou": 3017,
      "WAR": 3018,
      "imple": 3019,
      "press": 3020,
      "ported": 3021,
      "Module": 3022,
      ")/": 3023,
      "ensions": 3024,
      "async": 3025,
      "Column": 3026,
      "ven": 3027,
      "ries": 3028,
      "DataFrame": 3029,
      "ily": 3030,
      "lim": 3031,
      "distance": 3032,
      "rel": 3033,
      "Ġstruct": 3034,
      "SON": 3035,
      "ĠCh": 3036,
      "asure": 3037,
      "tect": 3038,
      "ðŁ": 3039,
      "ship": 3040,
      "git": 3041,
      "Ġinclude": 3042,
      "Ġsco": 3043,
      "255": 3044,
      "aded": 3045,
      "periment": 3046,
      "ropo": 3047,
      "7701": 3048,
      "----------------------------------------------------------------": 3049,
      "tach": 3050,
      "ru": 3051,
      "81": 3052,
      "Ġarguments": 3053,
      "âĸ": 3054,
      "Ġnull": 3055,
      "ĠĠĠĠĠĠĠĠĠĠĠĠĠĠĠĠĠĠĠĠĠĠĠĠĠĠĠĠĠĠ": 3056,
      "TYPE": 3057,
      "Ġmetadata": 3058,
      "Ġreturns": 3059,
      "andard": 3060,
      "empty": 3061,
      "ĠANY": 3062,
      "ha": 3063,
      "Ġcache": 3064,
      "future": 3065,
      "Ġ\"__": 3066,
      "github": 3067,
      "Ġgen": 3068,
      "metric": 3069,
      "ĠNot": 3070,
      "tract": 3071,
      "BU": 3072,
      "groups": 3073,
      "loads": 3074,
      "ĠImage": 3075,
      "Dis": 3076,
      "gb": 3077,
      "_{": 3078,
      "til": 3079,
      "dec": 3080,
      "Of": 3081,
      "Ġvar": 3082,
      "GS": 3083,
      "amera": 3084,
      "Serial": 3085,
      "Ġsingle": 3086,
      ":%": 3087,
      "Ġthere": 3088,
      "speci": 3089,
      "Ġfeatures": 3090,
      "Ġcolumns": 3091,
      "Ġrepre": 3092,
      "Ġ{}\".": 3093,
      "Ġeither": 3094,
      "non": 3095,
      "CC": 3096,
      "thread": 3097,
      "Ġargparse": 3098,
      "tex": 3099,
      "gor": 3100,
      "\"\\": 3101,
      "cpu": 3102,
      "__,": 3103,
      "53": 3104,
      "Ġ\"--": 3105,
      "SP": 3106,
      "card": 3107,
      "Ġcreated": 3108,
      "Layout": 3109,
      "policy": 3110,
      "Ġcap": 3111,
      "she": 3112,
      "mm": 3113,
      "Context": 3114,
      "ube": 3115,
      "Ġscore": 3116,
      "term": 3117,
      "ĠWAR": 3118,
      "tic": 3119,
      "83": 3120,
      "Ġwrit": 3121,
      "bounds": 3122,
      ");": 3123,
      "Ġtwo": 3124,
      "Ġdiffe": 3125,
      "().__": 3126,
      "predict": 3127,
      "82": 3128,
      "amma": 3129,
      "Ġexception": 3130,
      "Ġwindow": 3131,
      "79": 3132,
      "Ġaddress": 3133,
      "54": 3134,
      "Ġnow": 3135,
      "ĠTHE": 3136,
      "Ġsql": 3137,
      "Ġalpha": 3138,
      "fin": 3139,
      "logging": 3140,
      "driver": 3141,
      "leg": 3142,
      "pping": 3143,
      "agent": 3144,
      "ĠDefault": 3145,
      "loy": 3146,
      "like": 3147,
      "fc": 3148,
      "Ġvis": 3149,
      "Ġcomple": 3150,
      "timeout": 3151,
      "cuda": 3152,
      "product": 3153,
      "Ġmigrations": 3154,
      "vided": 3155,
      "Ġimages": 3156,
      "pad": 3157,
      "Ġdist": 3158,
      "Ġscale": 3159,
      "section": 3160,
      "Ġvector": 3161,
      "Ġfunc": 3162,
      "ropout": 3163,
      "ĠĠĊ": 3164,
      "users": 3165,
      "QL": 3166,
      "Ġass": 3167,
      "Count": 3168,
      "success": 3169,
      "curacy": 3170,
      "tab": 3171,
      "Ġ\"-": 3172,
      "Ġoffset": 3173,
      "ia": 3174,
      "Ġ//": 3175,
      "ived": 3176,
      "depth": 3177,
      "lr": 3178,
      "****************": 3179,
      "Ġdelete": 3180,
      "Ġcolle": 3181,
      "draw": 3182,
      "æľ": 3183,
      "ilter": 3184,
      "clean": 3185,
      "commit": 3186,
      "ĠAny": 3187,
      "ä»": 3188,
      "Ġfin": 3189,
      "76": 3190,
      "arm": 3191,
      "callback": 3192,
      "-%": 3193,
      "xx": 3194,
      "ORT": 3195,
      "Ġpart": 3196,
      "ĠDict": 3197,
      "52": 3198,
      "IM": 3199,
      "ability": 3200,
      "hidden": 3201,
      "Gener": 3202,
      "ategor": 3203,
      "We": 3204,
      "metrics": 3205,
      "gex": 3206,
      "ĠLo": 3207,
      "Ġbetween": 3208,
      "gorith": 3209,
      "ilder": 3210,
      "Ġmeta": 3211,
      "Ro": 3212,
      "../": 3213,
      "lated": 3214,
      "Ġembed": 3215,
      "startswith": 3216,
      "Ġepoch": 3217,
      "atter": 3218,
      "dm": 3219,
      "Map": 3220,
      "ABLE": 3221,
      "âĶĢâĶĢ": 3222,
      "home": 3223,
      "dius": 3224,
      "application": 3225,
      "database": 3226,
      "rank": 3227,
      "reset": 3228,
      "diction": 3229,
      "derr": 3230,
      "category": 3231,
      "ĠZ": 3232,
      "requ": 3233,
      "fra": 3234,
      "Ed": 3235,
      "buffer": 3236,
      "Ġkeys": 3237,
      "Ġ\"%": 3238,
      "Ġlanguage": 3239,
      "tical": 3240,
      "Point": 3241,
      "sitions": 3242,
      "long": 3243,
      "Ġdisplay": 3244,
      "Ġcsv": 3245,
      "tk": 3246,
      "`.": 3247,
      "Ġstop": 3248,
      "ution": 3249,
      "'{": 3250,
      "multi": 3251,
      "ITY": 3252,
      "astype": 3253,
      "created": 3254,
      "win": 3255,
      "Ġaccount": 3256,
      "fill": 3257,
      "fail": 3258,
      "43": 3259,
      "FAULT": 3260,
      "handle": 3261,
      "ocab": 3262,
      ")*": 3263,
      "Ġconnection": 3264,
      "FO": 3265,
      "ines": 3266,
      "ometry": 3267,
      "Ġempty": 3268,
      "':'": 3269,
      "__)": 3270,
      "ĠComp": 3271,
      "vious": 3272,
      "Command": 3273,
      "Ġmon": 3274,
      "Ġemail": 3275,
      "Ġ##": 3276,
      "()))": 3277,
      "scope": 3278,
      "properties": 3279,
      "}.": 3280,
      "transp": 3281,
      "Ġmatplotlib": 3282,
      "sched": 3283,
      "Ġlocation": 3284,
      "Service": 3285,
      "served": 3286,
      "sitive": 3287,
      "plugin": 3288,
      "Ġsuccess": 3289,
      "olve": 3290,
      "Ġge": 3291,
      "ux": 3292,
      "counter": 3293,
      "70": 3294,
      "tuple": 3295,
      "ĠAt": 3296,
      "olean": 3297,
      "This": 3298,
      "__()": 3299,
      "ĠĠĠĠĠĠĠĠĠĠĠĠĠĠĠĠĠĠĠĠĠĠĠĠĠĠĠĠĠĠĠĠĠ": 3300,
      "Mo": 3301,
      "lap": 3302,
      "ĠYou": 3303,
      "Ġloc": 3304,
      "dumps": 3305,
      "æķ°": 3306,
      "bi": 3307,
      "PASS": 3308,
      "stdout": 3309,
      "oci": 3310,
      "bers": 3311,
      "uler": 3312,
      "Table": 3313,
      "custom": 3314,
      "ending": 3315,
      "Ġalready": 3316,
      "Ġtree": 3317,
      "Ġbefore": 3318,
      "+'": 3319,
      "ced": 3320,
      "VE": 3321,
      "Ġpol": 3322,
      "Ġsa": 3323,
      "On": 3324,
      "training": 3325,
      "vals": 3326,
      "ams": 3327,
      "rl": 3328,
      "sible": 3329,
      "IR": 3330,
      "ower": 3331,
      "1000": 3332,
      "Ġbound": 3333,
      "ynam": 3334,
      "ĠBase": 3335,
      "vm": 3336,
      "Ġnodes": 3337,
      "94": 3338,
      "cel": 3339,
      "âĢ": 3340,
      "Ġmodi": 3341,
      "Array": 3342,
      "Integer": 3343,
      "(['": 3344,
      "åĲ": 3345,
      "loop": 3346,
      "Ġits": 3347,
      "acter": 3348,
      "alysis": 3349,
      "zero": 3350,
      "uter": 3351,
      "Ð»": 3352,
      "hether": 3353,
      "################################################################": 3354,
      "addr": 3355,
      "cret": 3356,
      "style": 3357,
      "Ġscript": 3358,
      "()[": 3359,
      "price": 3360,
      "site": 3361,
      "Ġcluster": 3362,
      "role": 3363,
      "ends": 3364,
      "Ġtimeout": 3365,
      "DS": 3366,
      "EST": 3367,
      "dirname": 3368,
      "Ġman": 3369,
      "Ġpick": 3370,
      "quires": 3371,
      "ĠRun": 3372,
      "outputs": 3373,
      "Ġdistance": 3374,
      "cm": 3375,
      "inition": 3376,
      "hex": 3377,
      "kernel": 3378,
      "summary": 3379,
      "sd": 3380,
      "Ġgame": 3381,
      "Ġ\"<": 3382,
      "initialize": 3383,
      "Ġ[[": 3384,
      "ZE": 3385,
      "ĠWARRAN": 3386,
      "Ġdir": 3387,
      "dered": 3388,
      "Ġsig": 3389,
      "Color": 3390,
      "issing": 3391,
      "sqrt": 3392,
      "classmethod": 3393,
      "cd": 3394,
      "')),": 3395,
      "Ġsee": 3396,
      "Ġcorrect": 3397,
      "Max": 3398,
      "Block": 3399,
      "ĠNo": 3400,
      "Ġsoftware": 3401,
      "Ġunique": 3402,
      "distri": 3403,
      "Ġ255": 3404,
      "desc": 3405,
      "ROR": 3406,
      "itude": 3407,
      "vari": 3408,
      "hand": 3409,
      "Ġpadding": 3410,
      "zone": 3411,
      "ółģ": 3412,
      "Ġattribute": 3413,
      "501": 3414,
      "('-": 3415,
      "Ġ((": 3416,
      "tack": 3417,
      "ditional": 3418,
      "Ġ$": 3419,
      "obs": 3420,
      "LIC": 3421,
      "Logger": 3422,
      "Ġwithout": 3423,
      "Ġcustom": 3424,
      "helper": 3425,
      "player": 3426,
      "Ġaccess": 3427,
      "ndarray": 3428,
      "fact": 3429,
      "Option": 3430,
      "Manager": 3431,
      "è¯": 3432,
      "Ġfinal": 3433,
      "apping": 3434,
      "blem": 3435,
      "vironment": 3436,
      "flu": 3437,
      "Ġunittest": 3438,
      "ĠSer": 3439,
      "best": 3440,
      "ĠDE": 3441,
      "cols": 3442,
      "flag": 3443,
      "Temp": 3444,
      "Ġqueue": 3445,
      "tokens": 3446,
      "sec": 3447,
      "raises": 3448,
      "Ġstream": 3449,
      "Fore": 3450,
      "Ġrule": 3451,
      "__\":": 3452,
      "69": 3453,
      "Ġconfiguration": 3454,
      "Fe": 3455,
      "Ġpred": 3456,
      "Ġbest": 3457,
      "assifier": 3458,
      "Output": 3459,
      "Ġtran": 3460,
      "erson": 3461,
      "Ġregion": 3462,
      "mount": 3463,
      "tegr": 3464,
      "(**": 3465,
      "Ġpandas": 3466,
      "78": 3467,
      "Ġproperty": 3468,
      "Ġcomponent": 3469,
      "}'": 3470,
      "cost": 3471,
      "pix": 3472,
      "chain": 3473,
      "Ġfollowing": 3474,
      "dirs": 3475,
      "Ġcompute": 3476,
      "ert": 3477,
      "Ġprovided": 3478,
      "Ġavailable": 3479,
      "states": 3480,
      "extend": 3481,
      "apshot": 3482,
      "lug": 3483,
      "ĠFile": 3484,
      "Ġsen": 3485,
      "ĠPo": 3486,
      "uild": 3487,
      "DATA": 3488,
      "Ġitems": 3489,
      "fici": 3490,
      "ENSE": 3491,
      "}\\": 3492,
      "upper": 3493,
      "ighb": 3494,
      "cr": 3495,
      "}')": 3496,
      "clu": 3497,
      "VAL": 3498,
      "Element": 3499,
      "ummy": 3500,
      "volume": 3501,
      "All": 3502,
      "Ġcli": 3503,
      "AG": 3504,
      "Ġprefix": 3505,
      "az": 3506,
      "nan": 3507,
      "scores": 3508,
      "mu": 3509,
      "Ġsubprocess": 3510,
      "Ġsecond": 3511,
      "pb": 3512,
      "vate": 3513,
      "%(": 3514,
      "Do": 3515,
      "Content": 3516,
      "SION": 3517,
      "thing": 3518,
      "roll": 3519,
      "Ġobjects": 3520,
      "Ġind": 3521,
      "256": 3522,
      "validate": 3523,
      "Ġmethods": 3524,
      "contrib": 3525,
      "ĠName": 3526,
      "pose": 3527,
      "storage": 3528,
      "Ġprob": 3529,
      "eded": 3530,
      "Ġpad": 3531,
      "Ġextra": 3532,
      "PASSWORD": 3533,
      "Ġhandle": 3534,
      "Ġday": 3535,
      "ESS": 3536,
      "vars": 3537,
      "={'": 3538,
      "INT": 3539,
      "_(": 3540,
      "xture": 3541,
      "58": 3542,
      "curity": 3543,
      "Ġbytes": 3544,
      "Ġexit": 3545,
      "plan": 3546,
      "Valid": 3547,
      "åħ": 3548,
      "Ġweights": 3549,
      "RL": 3550,
      "ASE": 3551,
      "_,": 3552,
      "encies": 3553,
      "sequence": 3554,
      "ish": 3555,
      "answer": 3556,
      "Conv": 3557,
      "Ġsystem": 3558,
      "uble": 3559,
      "ixel": 3560,
      "ĠSo": 3561,
      "FI": 3562,
      "Core": 3563,
      "Ġcell": 3564,
      "cloud": 3565,
      "Ġconvert": 3566,
      "untry": 3567,
      "Ġoriginal": 3568,
      "ĠCom": 3569,
      "entries": 3570,
      "ssible": 3571,
      "cision": 3572,
      "Ġmer": 3573,
      "73": 3574,
      "ensity": 3575,
      "From": 3576,
      "Process": 3577,
      "ender": 3578,
      "/'": 3579,
      "termin": 3580,
      "unique": 3581,
      "Ġusername": 3582,
      "IGHT": 3583,
      "final": 3584,
      "extra": 3585,
      "repr": 3586,
      "ĠWIT": 3587,
      "(\"/": 3588,
      "Ġ1000": 3589,
      "Action": 3590,
      "help": 3591,
      "olute": 3592,
      "cb": 3593,
      "ĠĠĠĠĠĠĠĠĠĠĠĠĠĠĠĠĠĠĠĠĠĠĠĠĠĠĠĠĠĠĠĠĠĠĠĠĠĠĠĠĠĠĠĠĠĠĠĠĠĠĠĠĠĠĠĠĠĠĠĠĠĠĠĠ": 3594,
      "ats": 3595,
      "ince": 3596,
      "skip": 3597,
      "conn": 3598,
      "ffix": 3599,
      "Ġkeep": 3600,
      "Ġbeen": 3601,
      "UB": 3602,
      "IND": 3603,
      "cos": 3604,
      "LOG": 3605,
      "okup": 3606,
      "ĠCal": 3607,
      "ould": 3608,
      "Ġconnect": 3609,
      "Ġcontaining": 3610,
      "Hel": 3611,
      "threshold": 3612,
      "Ġauthor": 3613,
      "Tra": 3614,
      "inates": 3615,
      "tition": 3616,
      "gre": 3617,
      "td": 3618,
      "Ġsent": 3619,
      "null": 3620,
      "Dataset": 3621,
      "rough": 3622,
      "Ġsm": 3623,
      "________": 3624,
      "Ġte": 3625,
      "compile": 3626,
      "Ġvariables": 3627,
      "ãĢ": 3628,
      "cessed": 3629,
      "avg": 3630,
      "Ġ_,": 3631,
      "processing": 3632,
      "ĠAp": 3633,
      "fetch": 3634,
      "71": 3635,
      "Ġtrack": 3636,
      "concat": 3637,
      "widget": 3638,
      "Ġrel": 3639,
      "alance": 3640,
      "container": 3641,
      "63": 3642,
      "ices": 3643,
      "]])": 3644,
      "Ġtypes": 3645,
      "uation": 3646,
      "Ġlow": 3647,
      "}/": 3648,
      "member": 3649,
      "93": 3650,
      "apply": 3651,
      "except": 3652,
      "ĉĊ": 3653,
      "PS": 3654,
      "Ġtrue": 3655,
      "flat": 3656,
      "Ġip": 3657,
      "41": 3658,
      "events": 3659,
      "parameter": 3660,
      "ratio": 3661,
      "Ġ30": 3662,
      "br": 3663,
      "CONF": 3664,
      "alle": 3665,
      "arange": 3666,
      "prop": 3667,
      "redentials": 3668,
      "}\".": 3669,
      "\":\"": 3670,
      "ets": 3671,
      "iddle": 3672,
      "engine": 3673,
      "generate": 3674,
      "ili": 3675,
      "interval": 3676,
      "Ġsequence": 3677,
      "Ġlike": 3678,
      "Gui": 3679,
      "91": 3680,
      "velo": 3681,
      "92": 3682,
      "Ġ%(": 3683,
      "times": 3684,
      "ength": 3685,
      "AM": 3686,
      "STR": 3687,
      "]],": 3688,
      "stim": 3689,
      "ROM": 3690,
      "ters": 3691,
      "Instance": 3692,
      "Ġobtain": 3693,
      "verbose": 3694,
      "Ġloop": 3695,
      "][\"": 3696,
      "ĠConfig": 3697,
      "Task": 3698,
      "Ġlong": 3699,
      "Ġdisc": 3700,
      "relu": 3701,
      "*(": 3702,
      "RES": 3703,
      "attributes": 3704,
      "where": 3705,
      "ral": 3706,
      "trace": 3707,
      "Raises": 3708,
      "Ġ50": 3709,
      "docs": 3710,
      "Ġerrors": 3711,
      "Ġencoding": 3712,
      "({'": 3713,
      "Ġtests": 3714,
      "SET": 3715,
      "ALL": 3716,
      "ĠčĊ": 3717,
      "Ġauto": 3718,
      "Argument": 3719,
      "ather": 3720,
      "INE": 3721,
      "Ġpair": 3722,
      "....": 3723,
      "Ġmulti": 3724,
      "ĉĉĉĉĉ": 3725,
      "çĶ": 3726,
      "sist": 3727,
      "00000000": 3728,
      "tific": 3729,
      "Token": 3730,
      "posit": 3731,
      "oriz": 3732,
      "edit": 3733,
      "commands": 3734,
      "olver": 3735,
      "dims": 3736,
      "attribute": 3737,
      "ĠVersion": 3738,
      "dient": 3739,
      "mk": 3740,
      "Ġcfg": 3741,
      "dictions": 3742,
      "most": 3743,
      "cursor": 3744,
      "atom": 3745,
      "rb": 3746,
      "elect": 3747,
      "TIES": 3748,
      "Function": 3749,
      "Policy": 3750,
      "Start": 3751,
      "Ġskip": 3752,
      "Pri": 3753,
      "warning": 3754,
      "Ġreport": 3755,
      "ii": 3756,
      "this": 3757,
      "å¤": 3758,
      "HTTP": 3759,
      "atches": 3760,
      "Ġforward": 3761,
      "seg": 3762,
      "Ġ-------": 3763,
      "gorithm": 3764,
      "Ð°Ð": 3765,
      "ĠLog": 3766,
      "Ġrece": 3767,
      "Ġactual": 3768,
      "freq": 3769,
      "Ġignore": 3770,
      "render": 3771,
      "dia": 3772,
      "MENT": 3773,
      "Ġstride": 3774,
      "document": 3775,
      "comm": 3776,
      "aved": 3777,
      "74": 3778,
      "Ġ11": 3779,
      "Filter": 3780,
      "Ġspe": 3781,
      "|'": 3782,
      "Ġdomain": 3783,
      "PUT": 3784,
      "Ġproduct": 3785,
      "Ġdebug": 3786,
      "Ġpe": 3787,
      "Ġseq": 3788,
      "Ġhash": 3789,
      ")).": 3790,
      "assertRaises": 3791,
      "Ġclean": 3792,
      "Ġstack": 3793,
      "filters": 3794,
      "As": 3795,
      "just": 3796,
      "units": 3797,
      "views": 3798,
      "respon": 3799,
      "Cur": 3800,
      "comment": 3801,
      "bucket": 3802,
      ":.": 3803,
      "æĸ": 3804,
      "bind": 3805,
      "Ġconf": 3806,
      "Ġhasattr": 3807,
      "linear": 3808,
      "amo": 3809,
      "Ext": 3810,
      "Resource": 3811,
      "liance": 3812,
      "Update": 3813,
      "Found": 3814,
      "ws": 3815,
      "\">": 3816,
      "tention": 3817,
      "izers": 3818,
      "setter": 3819,
      "è¿": 3820,
      "Ġreturned": 3821,
      "none": 3822,
      "master": 3823,
      "ERROR": 3824,
      "assed": 3825,
      "Implemented": 3826,
      "Oper": 3827,
      "short": 3828,
      "68": 3829,
      "Be": 3830,
      "Ġoutputs": 3831,
      "ĠUp": 3832,
      "ĠModel": 3833,
      "ured": 3834,
      "End": 3835,
      "72": 3836,
      "Ġextract": 3837,
      "control": 3838,
      "ĠApp": 3839,
      "Ġfolder": 3840,
      "Ġ{}'.": 3841,
      "ĠLO": 3842,
      "Ġweb": 3843,
      "Ġsamples": 3844,
      "Ġexists": 3845,
      "sur": 3846,
      "AGE": 3847,
      "ĠAll": 3848,
      "Ġ\")": 3849,
      "Ġreference": 3850,
      "urls": 3851,
      "\"}": 3852,
      "Ġsw": 3853,
      "span": 3854,
      "Ġgetattr": 3855,
      "ĠString": 3856,
      "ategy": 3857,
      "Ġcallback": 3858,
      "cip": 3859,
      "tool": 3860,
      "DF": 3861,
      "Ġrows": 3862,
      "known": 3863,
      "Ġalso": 3864,
      "ixed": 3865,
      "ĠNum": 3866,
      "memory": 3867,
      "Ġconn": 3868,
      "Serializer": 3869,
      "License": 3870,
      "variables": 3871,
      "chunk": 3872,
      "51": 3873,
      "ĠWARRANTIES": 3874,
      "Ġbased": 3875,
      "Ġ32": 3876,
      "didate": 3877,
      "END": 3878,
      "Ġmove": 3879,
      "OUT": 3880,
      "ites": 3881,
      "Ġplayer": 3882,
      "SIZE": 3883,
      "used": 3884,
      "Invalid": 3885,
      "Ġsel": 3886,
      "within": 3887,
      "ĠIt": 3888,
      "redu": 3889,
      "Ġschema": 3890,
      "payload": 3891,
      "tax": 3892,
      "lis": 3893,
      "ĠVar": 3894,
      "ead": 3895,
      "tered": 3896,
      "Ġ<<": 3897,
      ")])": 3898,
      "cimal": 3899,
      "ditions": 3900,
      "ĠOr": 3901,
      "Ġsn": 3902,
      "utor": 3903,
      "flags": 3904,
      "TEST": 3905,
      "Ġjust": 3906,
      "clear": 3907,
      "ACK": 3908,
      "history": 3909,
      "ITION": 3910,
      "requency": 3911,
      "colors": 3912,
      "etri": 3913,
      "Server": 3914,
      "Ġhand": 3915,
      "âĸĪ": 3916,
      "correct": 3917,
      "Ġfit": 3918,
      "Ġconv": 3919,
      "Ġfail": 3920,
      "quee": 3921,
      "repo": 3922,
      "Ġpredict": 3923,
      ",\"": 3924,
      "FOR": 3925,
      ":\\": 3926,
      "arnings": 3927,
      "Ġpayload": 3928,
      "logy": 3929,
      "Tag": 3930,
      "rec": 3931,
      "details": 3932,
      "collection": 3933,
      "Ġep": 3934,
      "ttp": 3935,
      "struction": 3936,
      "single": 3937,
      "bias": 3938,
      "mesh": 3939,
      "xff": 3940,
      "Ġrot": 3941,
      "62": 3942,
      "uate": 3943,
      ":,": 3944,
      "sage": 3945,
      "aries": 3946,
      "ĠConstraint": 3947,
      "]*": 3948,
      "signed": 3949,
      "amount": 3950,
      "CL": 3951,
      "./": 3952,
      "mag": 3953,
      "ĠĠĠĠĠĠĠĠĠĠĠĠĠĠĠĠĠĠĠĠĠĠĠĠĠĠĠĠĠĠĠĠĠĠ": 3954,
      "ĠAc": 3955,
      "Ġ64": 3956,
      "Ġthem": 3957,
      "Ġsort": 3958,
      "(\"--": 3959,
      "alk": 3960,
      "Version": 3961,
      "optim": 3962,
      "ga": 3963,
      "ective": 3964,
      "MODE": 3965,
      "Session": 3966,
      "writer": 3967,
      ".*": 3968,
      "Ġ'{": 3969,
      "PRE": 3970,
      "ĠTh": 3971,
      "Ġwait": 3972,
      "Ġtags": 3973,
      "Mock": 3974,
      "ier": 3975,
      "Ġhist": 3976,
      "ression": 3977,
      ")+": 3978,
      "ving": 3979,
      "Ġnoti": 3980,
      "Ġreverse": 3981,
      "!!": 3982,
      "Property": 3983,
      "binary": 3984,
      "Ġwant": 3985,
      "61": 3986,
      "come": 3987,
      "Ġì": 3988,
      "joint": 3989,
      "px": 3990,
      "Ġpermissions": 3991,
      "Level": 3992,
      "proto": 3993,
      "subplot": 3994,
      "Ġcontains": 3995,
      "dr": 3996,
      "CP": 3997,
      "oto": 3998,
      "Cal": 3999,
      "seconds": 4000,
      "Ġ[(": 4001,
      "Ġ\"_": 4002,
      "boxes": 4003,
      "Ġdifferent": 4004,
      "Widgets": 4005,
      "MM": 4006,
      "pick": 4007,
      "anel": 4008,
      "series": 4009,
      "Ġnorm": 4010,
      "Ġdraw": 4011,
      "bb": 4012,
      "mapping": 4013,
      "Def": 4014,
      "Ġrate": 4015,
      "ench": 4016,
      "(\"%": 4017,
      "servation": 4018,
      "jobs": 4019,
      "pdf": 4020,
      "Ġfunctions": 4021,
      "LECT": 4022,
      "Ġannot": 4023,
      "ons": 4024,
      "licenses": 4025,
      "ocument": 4026,
      "Ġplace": 4027,
      "nb": 4028,
      "HOUT": 4029,
      "BO": 4030,
      "Ġ:,": 4031,
      ":-": 4032,
      "cut": 4033,
      "Mode": 4034,
      "Ġreq": 4035,
      "Ġhigh": 4036,
      "vas": 4037,
      "`,": 4038,
      "Ġflag": 4039,
      "Ġpattern": 4040,
      "Ġrunning": 4041,
      "compute": 4042,
      "queeze": 4043,
      "Ġfailed": 4044,
      "modules": 4045,
      ")}": 4046,
      "des": 4047,
      "ĠHTTP": 4048,
      "soft": 4049,
      "sole": 4050,
      "utom": 4051,
      "uffle": 4052,
      "mac": 4053,
      "called": 4054,
      "CK": 4055,
      "speed": 4056,
      "ensed": 4057,
      "ĠĠĠĠĠĠĠĠĠĠĠĠĠĠĠĠĠĠĠĠĠĠĠĠĠĠĠĠĠĠĠĠĠĠĠĠĠĠĠĠĠĠĠ": 4058,
      "Ġcursor": 4059,
      "reference": 4060,
      "Ġhtml": 4061,
      "DEFAULT": 4062,
      "choice": 4063,
      "factory": 4064,
      "ĠAle": 4065,
      "Dir": 4066,
      "her": 4067,
      "high": 4068,
      "Ñĥ": 4069,
      "allow": 4070,
      "area": 4071,
      "Ġvalidate": 4072,
      "erature": 4073,
      "\"][": 4074,
      "Ġmetric": 4075,
      "ado": 4076,
      "Ġpop": 4077,
      "ĠĠĠĠĠĠĠĠĠĠĠĠĠĠĠĠĠĠĠĠĠĠĠĠĠĠĠĠĠĠĠĠĠĠĠĠ": 4078,
      "Ġå": 4079,
      "001": 4080,
      "alt": 4081,
      "ignKey": 4082,
      "Ġdt": 4083,
      "generator": 4084,
      "Ġspace": 4085,
      "ĠĠĠĠčĊ": 4086,
      "convert": 4087,
      "rf": 4088,
      "Ġreplace": 4089,
      "Ġ-=": 4090,
      "bits": 4091,
      "COL": 4092,
      "neg": 4093,
      ">'": 4094,
      ".\",": 4095,
      "Ġrep": 4096,
      "Ġow": 4097,
      "pository": 4098,
      "Ġstore": 4099,
      "=%": 4100,
      "So": 4101,
      "Ġau": 4102,
      "Ġsupport": 4103,
      "ĠNotImplemented": 4104,
      "include": 4105,
      "äº": 4106,
      "istry": 4107,
      "endencies": 4108,
      "ĠSh": 4109,
      "coords": 4110,
      "tt": 4111,
      "inf": 4112,
      "Ġrest": 4113,
      "pipeline": 4114,
      "Ġfactor": 4115,
      "Ġmod": 4116,
      "Ġlat": 4117,
      "/%": 4118,
      "children": 4119,
      "Ġpk": 4120,
      "Ġinstall": 4121,
      "Ġchunk": 4122,
      "Ġdisable": 4123,
      "Read": 4124,
      "Ġpygame": 4125,
      "Graph": 4126,
      "ural": 4127,
      "Ġoptimizer": 4128,
      "ire": 4129,
      "siz": 4130,
      "Ġoperation": 4131,
      "Ġdone": 4132,
      "interface": 4133,
      "screen": 4134,
      "SA": 4135,
      "OK": 4136,
      "relation": 4137,
      "Ġreal": 4138,
      "Ġ\"\",": 4139,
      "Ðº": 4140,
      "lex": 4141,
      "unittest": 4142,
      "GL": 4143,
      "Ġindices": 4144,
      "USER": 4145,
      "modi": 4146,
      "Ġsklearn": 4147,
      "ient": 4148,
      "blue": 4149,
      "Ġentity": 4150,
      "SV": 4151,
      "rtype": 4152,
      "ĠTo": 4153,
      "air": 4154,
      "sl": 4155,
      "reed": 4156,
      "tasks": 4157,
      "Ġshe": 4158,
      "cription": 4159,
      "miss": 4160,
      "download": 4161,
      "Ġdat": 4162,
      "ĠTime": 4163,
      "ynamic": 4164,
      "ĠFROM": 4165,
      "()),": 4166,
      "forward": 4167,
      "hook": 4168,
      "ĠWITHOUT": 4169,
      "ampling": 4170,
      ")',": 4171,
      "SH": 4172,
      "messages": 4173,
      "Ġdon": 4174,
      "Ph": 4175,
      "ario": 4176,
      "igration": 4177,
      "validation": 4178,
      "vs": 4179,
      "ector": 4180,
      "mut": 4181,
      "Ġmu": 4182,
      "GB": 4183,
      "}'.": 4184,
      "ĠApache": 4185,
      "counts": 4186,
      "Ġcollections": 4187,
      "elif": 4188,
      "ĠURL": 4189,
      "ĠAND": 4190,
      "Ġpatch": 4191,
      "ĠĠĠĠĠĠĠĠĠĠĠĠĠĠĠĠĊ": 4192,
      "PC": 4193,
      "Ġoptim": 4194,
      "Ã©": 4195,
      "rences": 4196,
      "force": 4197,
      "[:-": 4198,
      "ished": 4199,
      "figure": 4200,
      "Ġstyle": 4201,
      "SD": 4202,
      "Ġcalled": 4203,
      "google": 4204,
      "æĪ": 4205,
      "cio": 4206,
      "tc": 4207,
      "cause": 4208,
      "isode": 4209,
      "gger": 4210,
      "ĠCl": 4211,
      "public": 4212,
      "////////": 4213,
      "pd": 4214,
      "Ġsocket": 4215,
      "quare": 4216,
      "SO": 4217,
      "testing": 4218,
      "creen": 4219,
      "Min": 4220,
      "ĠNO": 4221,
      "gate": 4222,
      "reward": 4223,
      "atic": 4224,
      "icro": 4225,
      "TIME": 4226,
      "month": 4227,
      "vol": 4228,
      "Ġhidden": 4229,
      "ĠLe": 4230,
      "power": 4231,
      "Ġsci": 4232,
      "apter": 4233,
      "=_": 4234,
      "Ġpickle": 4235,
      "Ġdiff": 4236,
      "ĠĠĠĠĠĠĠĠĠĠĠĠĠĠĠĠĠĠĠĠĠĠĠĠĠĠĠĠĠĠĠĠĠĠĠĠĠ": 4237,
      "\"]:": 4238,
      "Ġ'#": 4239,
      "ume": 4240,
      "GER": 4241,
      "duration": 4242,
      "Ġselected": 4243,
      "Ġapplic": 4244,
      "Ġ})": 4245,
      "With": 4246,
      "Ġevery": 4247,
      "beta": 4248,
      "Call": 4249,
      "attrs": 4250,
      "star": 4251,
      "after": 4252,
      "fp": 4253,
      "AA": 4254,
      "Ġtr": 4255,
      "Page": 4256,
      "Ġdefined": 4257,
      "expand": 4258,
      "backend": 4259,
      "available": 4260,
      "exc": 4261,
      ">\",": 4262,
      "uplic": 4263,
      "Ġdelta": 4264,
      "blank": 4265,
      "DER": 4266,
      "ĠUnion": 4267,
      "edges": 4268,
      "squeeze": 4269,
      "Ġflask": 4270,
      "Ġvari": 4271,
      "rece": 4272,
      "ĠEX": 4273,
      "128": 4274,
      "export": 4275,
      "Ġdesc": 4276,
      "Ġbinary": 4277,
      "alth": 4278,
      "Ġhow": 4279,
      "menu": 4280,
      "forms": 4281,
      "invalid": 4282,
      "ority": 4283,
      "Ġ14": 4284,
      "=[\"": 4285,
      "PER": 4286,
      "Ġwriting": 4287,
      "Mat": 4288,
      "NN": 4289,
      "Ġdetails": 4290,
      "istic": 4291,
      "Op": 4292,
      "exceptions": 4293,
      "zy": 4294,
      "ĠReg": 4295,
      "ĠInput": 4296,
      "Query": 4297,
      "HER": 4298,
      "secret": 4299,
      "Ġtimestamp": 4300,
      "socket": 4301,
      "rm": 4302,
      "lst": 4303,
      "stderr": 4304,
      "Struct": 4305,
      "ä½": 4306,
      "\");": 4307,
      "ways": 4308,
      "car": 4309,
      "signal": 4310,
      "Ġmessages": 4311,
      "Source": 4312,
      "Tree": 4313,
      "ç»": 4314,
      "Ġ\"{": 4315,
      "ases": 4316,
      "days": 4317,
      "tection": 4318,
      "Ġcommon": 4319,
      "Ġcenter": 4320,
      "Ġprogram": 4321,
      "ĠKIND": 4322,
      "extract": 4323,
      "Ġcategory": 4324,
      "ended": 4325,
      "lue": 4326,
      "å®": 4327,
      "Ġ[-": 4328,
      "inary": 4329,
      "ee": 4330,
      "pid": 4331,
      "trie": 4332,
      "Method": 4333,
      "iki": 4334,
      "axes": 4335,
      "Int": 4336,
      ":\",": 4337,
      "Ġcir": 4338,
      "inate": 4339,
      "åŃ": 4340,
      "ĠNotImplementedError": 4341,
      "'+": 4342,
      "\"},": 4343,
      "ocker": 4344,
      "frames": 4345,
      "comb": 4346,
      "BUG": 4347,
      "colle": 4348,
      "__.": 4349,
      "inv": 4350,
      "ĠTypeError": 4351,
      ".',": 4352,
      "getLogger": 4353,
      "greg": 4354,
      "Ġgenerated": 4355,
      "acity": 4356,
      "istics": 4357,
      "Ġattributes": 4358,
      "Ġ###": 4359,
      "fname": 4360,
      "unch": 4361,
      "OS": 4362,
      "fast": 4363,
      "platform": 4364,
      "Ġpassed": 4365,
      "RI": 4366,
      "Ġ13": 4367,
      "THER": 4368,
      "è®": 4369,
      "Ġround": 4370,
      "]).": 4371,
      "Ġhy": 4372,
      "road": 4373,
      "############": 4374,
      "Ġusers": 4375,
      "CRE": 4376,
      "ĠSoftware": 4377,
      "Ġnamespace": 4378,
      "optimizer": 4379,
      "eq": 4380,
      "bn": 4381,
      "yaml": 4382,
      "Factory": 4383,
      "shift": 4384,
      "AND": 4385,
      "dings": 4386,
      "Ġbecause": 4387,
      "ail": 4388,
      "Ġcontainer": 4389,
      "fake": 4390,
      "MPLE": 4391,
      "opts": 4392,
      "Ġhandler": 4393,
      "theta": 4394,
      "Ġ')": 4395,
      "Ġ60": 4396,
      "Ġcommands": 4397,
      "chine": 4398,
      "gan": 4399,
      "raise": 4400,
      "Ġpixel": 4401,
      "Mix": 4402,
      "Ġ'',": 4403,
      "sive": 4404,
      "Ġmetrics": 4405,
      "ssian": 4406,
      "ForeignKey": 4407,
      "Ġprevious": 4408,
      "orizont": 4409,
      "spect": 4410,
      "ĠNOT": 4411,
      "ĠPer": 4412,
      "ĠQu": 4413,
      "owner": 4414,
      "pixel": 4415,
      "Ġredirect": 4416,
      "Ġcre": 4417,
      "spath": 4418,
      "icensed": 4419,
      "enabled": 4420,
      "=\"\"": 4421,
      "tile": 4422,
      "Ġnan": 4423,
      "Load": 4424,
      "Ġthrough": 4425,
      "nown": 4426,
      "Parameter": 4427,
      "language": 4428,
      "encoder": 4429,
      "Ġmp": 4430,
      "Ġwhether": 4431,
      "ues": 4432,
      "Ġclasses": 4433,
      "erial": 4434,
      "subject": 4435,
      "ITE": 4436,
      "sin": 4437,
      "components": 4438,
      "Ġasyn": 4439,
      "LICENSE": 4440,
      "allel": 4441,
      "feed": 4442,
      "ĠOut": 4443,
      "Ġblank": 4444,
      "ĠRE": 4445,
      "Ġsched": 4446,
      "noti": 4447,
      "Ġclose": 4448,
      "Down": 4449,
      "è¡": 4450,
      "Ġtrace": 4451,
      "randint": 4452,
      "keras": 4453,
      "Ġinteger": 4454,
      "Ġds": 4455,
      "Ġseconds": 4456,
      "Ġimplied": 4457,
      "Ġfill": 4458,
      "tep": 4459,
      "Ġseed": 4460,
      "Ġsubject": 4461,
      "second": 4462,
      "reader": 4463,
      "ited": 4464,
      "Default": 4465,
      "bove": 4466,
      "cluded": 4467,
      "dele": 4468,
      "BB": 4469,
      "Ġcorrespon": 4470,
      ">\"": 4471,
      "ĠDo": 4472,
      "abc": 4473,
      "Ġhel": 4474,
      "ences": 4475,
      "Ġmultiple": 4476,
      "Ġexc": 4477,
      "Ġthey": 4478,
      "Layer": 4479,
      "align": 4480,
      "Ġtk": 4481,
      "Ġvalidation": 4482,
      "amily": 4483,
      "500": 4484,
      "Ġpool": 4485,
      "ulate": 4486,
      "UTH": 4487,
      "ĠWhy": 4488,
      "elete": 4489,
      "install": 4490,
      "js": 4491,
      "Ġagent": 4492,
      "Ġdownload": 4493,
      "rer": 4494,
      "Ġsure": 4495,
      "lear": 4496,
      "INFO": 4497,
      "ĉĉĊ": 4498,
      "ered": 4499,
      "lint": 4500,
      "enum": 4501,
      "+\"": 4502,
      "Ġadded": 4503,
      "()]": 4504,
      "merge": 4505,
      "Ġthese": 4506,
      "Ġmissing": 4507,
      "direction": 4508,
      "Ġæ": 4509,
      "ĠColumn": 4510,
      "disp": 4511,
      "rowser": 4512,
      "ram": 4513,
      "Ġelements": 4514,
      "resources": 4515,
      "Ġproperties": 4516,
      "Ġwords": 4517,
      "ĠAs": 4518,
      "endpoint": 4519,
      "Address": 4520,
      "orizontal": 4521,
      "hat": 4522,
      "Ġour": 4523,
      "apache": 4524,
      "sorted": 4525,
      "Ġstats": 4526,
      "namespace": 4527,
      "Scal": 4528,
      "sigma": 4529,
      "Ġactivation": 4530,
      "ĠExample": 4531,
      ")-": 4532,
      ")],": 4533,
      "Ġtensorflow": 4534,
      "usion": 4535,
      "Back": 4536,
      "tices": 4537,
      "yg": 4538,
      "Ġvolume": 4539,
      "arge": 4540,
      "Ġbutton": 4541,
      "etail": 4542,
      "iod": 4543,
      "ĠAlexa": 4544,
      "GR": 4545,
      "hs": 4546,
      "WS": 4547,
      "hour": 4548,
      "Options": 4549,
      "Dist": 4550,
      "ym": 4551,
      "Ġcomment": 4552,
      "circ": 4553,
      "Ġapply": 4554,
      "Pool": 4555,
      "MAX": 4556,
      "Ġabove": 4557,
      "Ġabout": 4558,
      "Ge": 4559,
      "Ref": 4560,
      "cla": 4561,
      "pus": 4562,
      "Ġgover": 4563,
      "uring": 4564,
      "disc": 4565,
      "release": 4566,
      "('%": 4567,
      "peat": 4568,
      "ored": 4569,
      "ĠAuth": 4570,
      "estim": 4571,
      "period": 4572,
      "Ġdepth": 4573,
      "entro": 4574,
      "Edit": 4575,
      ".'": 4576,
      "}}": 4577,
      "Link": 4578,
      "DITION": 4579,
      "New": 4580,
      "(?": 4581,
      "filepath": 4582,
      "ĠImport": 4583,
      "/\"": 4584,
      "sentation": 4585,
      "ĠLicensed": 4586,
      "NS": 4587,
      "vocab": 4588,
      "usters": 4589,
      "mul": 4590,
      "([[": 4591,
      "prev": 4592,
      "ale": 4593,
      "Ġexisting": 4594,
      "Ġcollection": 4595,
      "ĠAd": 4596,
      "Ġapplicable": 4597,
      "fixture": 4598,
      "Ġsignal": 4599,
      "gpu": 4600,
      "original": 4601,
      "ylabel": 4602,
      "Ġneg": 4603,
      "Ġ:]": 4604,
      "Ġatom": 4605,
      "ĠPre": 4606,
      "syn": 4607,
      "Ġcalculate": 4608,
      "ĠSO": 4609,
      "URE": 4610,
      "Ġsyn": 4611,
      "Change": 4612,
      "ensure": 4613,
      "Ġdimension": 4614,
      "chat": 4615,
      "ĠOn": 4616,
      "pts": 4617,
      "Enum": 4618,
      "Ver": 4619,
      "Ġfn": 4620,
      "actor": 4621,
      "Ġprofile": 4622,
      "Ġprev": 4623,
      "Float": 4624,
      "Ġsage": 4625,
      "fd": 4626,
      "mbers": 4627,
      "')[": 4628,
      "fid": 4629,
      "Mixin": 4630,
      "Ġevents": 4631,
      "ĠNumber": 4632,
      "ji": 4633,
      "translate": 4634,
      "blocks": 4635,
      "Variable": 4636,
      "agement": 4637,
      "Ġ).": 4638,
      "Ġ----------------------------------------------------------------": 4639,
      "Ġve": 4640,
      "assign": 4641,
      "proj": 4642,
      "fun": 4643,
      "Ġinterface": 4644,
      "Ġperson": 4645,
      "Ñĭ": 4646,
      "basic": 4647,
      "Ġprimary": 4648,
      "']))": 4649,
      "Ġ])": 4650,
      "Ġconver": 4651,
      "transpose": 4652,
      "ANT": 4653,
      "note": 4654,
      "ĠTuple": 4655,
      "upload": 4656,
      "ture": 4657,
      "sses": 4658,
      "Ġvideo": 4659,
      "LAGS": 4660,
      "selected": 4661,
      "ĠQtWidgets": 4662,
      "ĠĠĠĠĠĠĠĠčĊ": 4663,
      "Ġrole": 4664,
      "prox": 4665,
      "ĠAl": 4666,
      "ressed": 4667,
      "ategories": 4668,
      "']),": 4669,
      "rency": 4670,
      "Ġinvalid": 4671,
      "clip": 4672,
      "buf": 4673,
      "rag": 4674,
      "Ġtimes": 4675,
      "DA": 4676,
      "asis": 4677,
      "faces": 4678,
      "ront": 4679,
      "Linear": 4680,
      "kw": 4681,
      "va": 4682,
      "stage": 4683,
      "ĠNote": 4684,
      "assification": 4685,
      "DateTime": 4686,
      "Ġscipy": 4687,
      "PU": 4688,
      "Loader": 4689,
      "Ġactive": 4690,
      "Meta": 4691,
      "Ġneeded": 4692,
      "PORT": 4693,
      "ye": 4694,
      "trained": 4695,
      "segment": 4696,
      "Ñı": 4697,
      "ĠSub": 4698,
      "Ne": 4699,
      "TA": 4700,
      "alf": 4701,
      "Ġamount": 4702,
      "ilar": 4703,
      "ond": 4704,
      "complete": 4705,
      "!\")": 4706,
      "antity": 4707,
      "CI": 4708,
      "Ġlayers": 4709,
      "Ġfp": 4710,
      "NE": 4711,
      "divid": 4712,
      "Ġassoci": 4713,
      "jpg": 4714,
      "scan": 4715,
      "Ġexpress": 4716,
      "ĠJSON": 4717,
      "branch": 4718,
      "Connection": 4719,
      "-----": 4720,
      "ĠFOR": 4721,
      "{}'.": 4722,
      "Full": 4723,
      "umb": 4724,
      "remote": 4725,
      "Ġmemory": 4726,
      "lain": 4727,
      "(\"-": 4728,
      "PL": 4729,
      "åĬ": 4730,
      "getter": 4731,
      "arti": 4732,
      "Ġcost": 4733,
      "entication": 4734,
      "ĠĠĠĠĠĠĠĠĠĠĠĠĠĠĠĠĠĠĠĠĠĠĠĠĠĠĠĠĠĠĠĠĠĠĠĠĠĠ": 4735,
      "DG": 4736,
      "WN": 4737,
      "xlabel": 4738,
      "targets": 4739,
      "Ġcat": 4740,
      "180": 4741,
      "Ġlower": 4742,
      "identifier": 4743,
      "team": 4744,
      "ĠPRO": 4745,
      "Ġcompliance": 4746,
      "ush": 4747,
      "Args": 4748,
      "Ġenvironment": 4749,
      "Exec": 4750,
      "Ġbias": 4751,
      "aws": 4752,
      "Ġcalcul": 4753,
      "IB": 4754,
      "simple": 4755,
      "Que": 4756,
      "Ġimplement": 4757,
      "_.": 4758,
      "Ġsection": 4759,
      "Ġcontrol": 4760,
      "Schema": 4761,
      "Ġbit": 4762,
      "found": 4763,
      "pyplot": 4764,
      "ĠResponse": 4765,
      "Var": 4766,
      "loaded": 4767,
      "Ġlaw": 4768,
      "({\"": 4769,
      "VIC": 4770,
      "kes": 4771,
      "ĠBAS": 4772,
      "Ġplugin": 4773,
      "semb": 4774,
      "qdm": 4775,
      "Ġprop": 4776,
      "Ġzero": 4777,
      "mg": 4778,
      "Ġspec": 4779,
      "Ġequal": 4780,
      "Ġarr": 4781,
      "aff": 4782,
      "ILITY": 4783,
      "Clo": 4784,
      "Admin": 4785,
      "MIN": 4786,
      "Ġupdated": 4787,
      "Rule": 4788,
      "Ġbuffer": 4789,
      "lour": 4790,
      "ancel": 4791,
      "lang": 4792,
      "Ġrepresen": 4793,
      "Ð¼": 4794,
      "çĶ¨": 4795,
      "moved": 4796,
      "Entry": 4797,
      "Ġurllib": 4798,
      "Ġlogin": 4799,
      "Train": 4800,
      "()):": 4801,
      "safe": 4802,
      "Ġinstead": 4803,
      "Ġaverage": 4804,
      ".\\": 4805,
      "æĺ": 4806,
      "Ġforce": 4807,
      "DITIONS": 4808,
      "Ġviews": 4809,
      "contact": 4810,
      "ULL": 4811,
      "icon": 4812,
      "Ġ40": 4813,
      "ĠUpdate": 4814,
      "(\\": 4815,
      "Ġcounter": 4816,
      "SQL": 4817,
      "aussian": 4818,
      "rad": 4819,
      "ĠCO": 4820,
      "ĠDis": 4821,
      "Ġsur": 4822,
      "Ġpossible": 4823,
      "ullable": 4824,
      "Ġiss": 4825,
      "slice": 4826,
      "Ġadmin": 4827,
      "([\"": 4828,
      "room": 4829,
      "Ġcore": 4830,
      "ĠUse": 4831,
      "framework": 4832,
      "epochs": 4833,
      "zz": 4834,
      "rong": 4835,
      "topic": 4836,
      "Ġthreshold": 4837,
      "Ġpaths": 4838,
      "ampler": 4839,
      "eras": 4840,
      "reduce": 4841,
      "world": 4842,
      "ĠBASIS": 4843,
      "Python": 4844,
      "ĠHttp": 4845,
      "bbox": 4846,
      "duce": 4847,
      "Ġshutil": 4848,
      "ftime": 4849,
      "Ġdirection": 4850,
      "bed": 4851,
      "ĠMo": 4852,
      "void": 4853,
      "uniform": 4854,
      "Top": 4855,
      "proc": 4856,
      "symbol": 4857,
      "silon": 4858,
      "ĠCONDITIONS": 4859,
      "urse": 4860,
      "grade": 4861,
      "}:": 4862,
      "ayment": 4863,
      "radius": 4864,
      "Ġgoverning": 4865,
      "deg": 4866,
      "imer": 4867,
      "Ġ202": 4868,
      "Ġpolicy": 4869,
      "Ġyear": 4870,
      "Ġshort": 4871,
      "Ġstorage": 4872,
      "Ġtheir": 4873,
      "Ġacc": 4874,
      "datasets": 4875,
      ")\",": 4876,
      "holder": 4877,
      "{}\".": 4878,
      "super": 4879,
      "Ġboard": 4880,
      ">,": 4881,
      "bg": 4882,
      "Ġtick": 4883,
      "checkpoint": 4884,
      "legend": 4885,
      "Location": 4886,
      "inner": 4887,
      "ĠST": 4888,
      "Ġface": 4889,
      "serialize": 4890,
      "elements": 4891,
      "scaled": 4892,
      "abstract": 4893,
      "Ġboth": 4894,
      ":',": 4895,
      "percent": 4896,
      "}{": 4897,
      "åĽ": 4898,
      "proxy": 4899,
      "Sign": 4900,
      "Ġregister": 4901,
      "argin": 4902,
      "SELECT": 4903,
      "rules": 4904,
      "ticks": 4905,
      "detail": 4906,
      "Ġstdout": 4907,
      "Ġopts": 4908,
      "Ġtokens": 4909,
      "logs": 4910,
      "IST": 4911,
      "Ġparsed": 4912,
      "Pack": 4913,
      "Ġfast": 4914,
      "tw": 4915,
      "400": 4916,
      "push": 4917,
      ")\"": 4918,
      "scribe": 4919,
      "Ġendpoint": 4920,
      "enchmark": 4921,
      "oment": 4922,
      "Ġagain": 4923,
      "Ġagreed": 4924,
      "cn": 4925,
      "ĠField": 4926,
      "configuration": 4927,
      "Ġdriver": 4928,
      "Ġassign": 4929,
      "embedding": 4930,
      "assertIs": 4931,
      "000000": 4932,
      "alo": 4933,
      "Ġunits": 4934,
      "Search": 4935,
      "ametri": 4936,
      "lid": 4937,
      "ĠTrans": 4938,
      "Ġio": 4939,
      "ĠWh": 4940,
      ",)": 4941,
      "And": 4942,
      "Ġsupported": 4943,
      "Ġscope": 4944,
      "ming": 4945,
      "CTION": 4946,
      "Ġflow": 4947,
      "locity": 4948,
      "NUM": 4949,
      "Ġda": 4950,
      "->": 4951,
      "feat": 4952,
      "Reals": 4953,
      "ea": 4954,
      "Ġutil": 4955,
      "Ġ?": 4956,
      "black": 4957,
      "ĠNode": 4958,
      "Ġoperations": 4959,
      "Ġclick": 4960,
      "Ġfun": 4961,
      "hic": 4962,
      "exist": 4963,
      "experiment": 4964,
      "Ġmaximum": 4965,
      "Ġglob": 4966,
      "optional": 4967,
      "constants": 4968,
      "Record": 4969,
      "Ġmerge": 4970,
      "protocol": 4971,
      "300": 4972,
      "Ġlimitations": 4973,
      "Ġrelated": 4974,
      "Batch": 4975,
      "pm": 4976,
      "wrap": 4977,
      "Ġlr": 4978,
      "lers": 4979,
      "bus": 4980,
      "uting": 4981,
      "Ġjoin": 4982,
      "Obj": 4983,
      "gent": 4984,
      "constant": 4985,
      "Work": 4986,
      "æĹ": 4987,
      "TED": 4988,
      "abspath": 4989,
      "ignore": 4990,
      "Ġallowed": 4991,
      "ĠLOG": 4992,
      "Ġsimple": 4993,
      "ĠError": 4994,
      "audio": 4995,
      "Ġ25": 4996,
      "mpt": 4997,
      "Returns": 4998,
      "inds": 4999,
      "udent": 5000,
      "Ġbeta": 5001,
      "spy": 5002,
      "WARE": 5003,
      "Ġsigma": 5004,
      "Device": 5005,
      "Ġremote": 5006,
      "parts": 5007,
      "schedule": 5008,
      "Ġreward": 5009,
      ")\\": 5010,
      "CR": 5011,
      "phase": 5012,
      "Ġcurr": 5013,
      "Params": 5014,
      "iddleware": 5015,
      "land": 5016,
      "strftime": 5017,
      "II": 5018,
      "dividual": 5019,
      "ferences": 5020,
      "diag": 5021,
      "slot": 5022,
      "delay": 5023,
      "ÑĮ": 5024,
      "dropout": 5025,
      "chor": 5026,
      "âĸĪâĸĪ": 5027,
      "Ġmember": 5028,
      "fiers": 5029,
      "UE": 5030,
      "alg": 5031,
      "Ġast": 5032,
      "Ġwhat": 5033,
      "noise": 5034,
      "404": 5035,
      "_%": 5036,
      "tificate": 5037,
      "ĠĠĠĠĠĠĠĠĠĠĠĠĠĠĠĠĠĠĠĠĠĠĠĠĠĠĠĠĠĠĠĠĠĠĠĠĠĠĠĠ": 5038,
      ")')": 5039,
      "duction": 5040,
      "Ġfeed": 5041,
      "ually": 5042,
      "enate": 5043,
      "prec": 5044,
      "coded": 5045,
      "Ġ18": 5046,
      "2019": 5047,
      ">\\": 5048,
      "tein": 5049,
      "Ġreset": 5050,
      "ĠMeta": 5051,
      "Open": 5052,
      "Ġarch": 5053,
      "requires": 5054,
      "Ġgroups": 5055,
      "ja": 5056,
      "sep": 5057,
      "services": 5058,
      "HERE": 5059,
      "Ġsepar": 5060,
      "Ġangle": 5061,
      "Ġ'{}": 5062,
      "Ġrank": 5063,
      "gamma": 5064,
      "Ġestim": 5065,
      "Ġwithin": 5066,
      "ART": 5067,
      "chemy": 5068,
      "learning": 5069,
      "gl": 5070,
      "rpc": 5071,
      "åº": 5072,
      "Ġgt": 5073,
      "Ġlicense": 5074,
      "pted": 5075,
      "ONE": 5076,
      "white": 5077,
      "ports": 5078,
      "~~~~~~~~": 5079,
      "Ġxml": 5080,
      "cnt": 5081,
      "endswith": 5082,
      "Ġmapping": 5083,
      "STAT": 5084,
      "requests": 5085,
      "Ġscores": 5086,
      "Detail": 5087,
      "Ġpylint": 5088,
      "Ġunicode": 5089,
      "require": 5090,
      "eric": 5091,
      "bad": 5092,
      "}\",": 5093,
      "balance": 5094,
      "firm": 5095,
      "fully": 5096,
      "dst": 5097,
      "ĠUnless": 5098,
      "arguments": 5099,
      "encoding": 5100,
      "bins": 5101,
      "Ġaxes": 5102,
      "band": 5103,
      "Ġcard": 5104,
      "Ġbuf": 5105,
      "Ġbar": 5106,
      "Ġdev": 5107,
      "Port": 5108,
      "MAT": 5109,
      "Document": 5110,
      "Ġbbox": 5111,
      "Ġ17": 5112,
      "mem": 5113,
      "Ġcannot": 5114,
      "Api": 5115,
      "Ġstructure": 5116,
      "ida": 5117,
      "Ġwidget": 5118,
      "Failed": 5119,
      "Ġhelper": 5120,
      "Ġperform": 5121,
      "Ġ'')": 5122,
      "tour": 5123,
      "ACE": 5124,
      "Ġedit": 5125,
      "props": 5126,
      "Normal": 5127,
      "Ġnote": 5128,
      "Ġway": 5129,
      "================================================================": 5130,
      "Ġ\"+": 5131,
      "lash": 5132,
      "ĠHe": 5133,
      "Ġcm": 5134,
      "Iter": 5135,
      "packages": 5136,
      "dc": 5137,
      "ĠsetUp": 5138,
      "bility": 5139,
      "sr": 5140,
      "]/": 5141,
      "ptr": 5142,
      "Length": 5143,
      "Total": 5144,
      "wb": 5145,
      "ĠTensor": 5146,
      "flatten": 5147,
      "blob": 5148,
      "Template": 5149,
      "missing": 5150,
      "ĠText": 5151,
      "before": 5152,
      "Thread": 5153,
      "Ġflu": 5154,
      "provider": 5155,
      "Ġdistribution": 5156,
      "done": 5157,
      "effici": 5158,
      "dx": 5159,
      "ArgumentParser": 5160,
      "dl": 5161,
      "rea": 5162,
      "CM": 5163,
      "Application": 5164,
      "Ġsteps": 5165,
      "ĠLoad": 5166,
      "Ġstri": 5167,
      "cii": 5168,
      "Ġsegment": 5169,
      "sha": 5170,
      "curr": 5171,
      "ouse": 5172,
      "ValueError": 5173,
      "You": 5174,
      "NotFound": 5175,
      "ãĢĤ": 5176,
      "Auto": 5177,
      "Ġpl": 5178,
      "two": 5179,
      "person": 5180,
      "Ġchain": 5181,
      "System": 5182,
      "byte": 5183,
      "ä¸Ģ": 5184,
      "Ġextension": 5185,
      "Ġnumbers": 5186,
      "ĠOpen": 5187,
      "running": 5188,
      "DEBUG": 5189,
      "Ġflags": 5190,
      "'^": 5191,
      "CS": 5192,
      "some": 5193,
      "sid": 5194,
      "Ġplan": 5195,
      "Stream": 5196,
      "Job": 5197,
      "Ġfilters": 5198,
      "Ġ128": 5199,
      "Ġpipeline": 5200,
      "Ġ24": 5201,
      "><": 5202,
      "intern": 5203,
      "atial": 5204,
      "deep": 5205,
      "æį": 5206,
      "sol": 5207,
      "ĠKeyError": 5208,
      "ech": 5209,
      "Ġbackend": 5210,
      "sync": 5211,
      "timeError": 5212,
      "ĠBo": 5213,
      "Attribute": 5214,
      "Ġalign": 5215,
      "chron": 5216,
      "Ġsummary": 5217,
      "tected": 5218,
      "HOST": 5219,
      "enable": 5220,
      "ested": 5221,
      "reverse": 5222,
      "Ġplatform": 5223,
      "Ġexecute": 5224,
      "Ġcy": 5225,
      "constraint": 5226,
      "Range": 5227,
      "iler": 5228,
      "Project": 5229,
      "XT": 5230,
      "rgb": 5231,
      "Ġpr": 5232,
      "slug": 5233,
      "spa": 5234,
      "boot": 5235,
      "Ġfree": 5236,
      "ird": 5237,
      "Ġmarker": 5238,
      "accuracy": 5239,
      "Ġlet": 5240,
      "Sc": 5241,
      "Tests": 5242,
      "false": 5243,
      "Ġabsolute": 5244,
      ":])": 5245,
      "lier": 5246,
      "adj": 5247,
      "bottom": 5248,
      "ĠRequest": 5249,
      "ĠFunction": 5250,
      "Ġapplication": 5251,
      "examples": 5252,
      "mooth": 5253,
      "Rec": 5254,
      "latest": 5255,
      "Program": 5256,
      "Ġactions": 5257,
      "Ġtargets": 5258,
      "JSON": 5259,
      "wc": 5260,
      "wt": 5261,
      "returns": 5262,
      "={\"": 5263,
      "Ġpower": 5264,
      "ABILITY": 5265,
      "ĠIP": 5266,
      "Ġbyte": 5267,
      "CONFIG": 5268,
      "emb": 5269,
      "ridge": 5270,
      "basename": 5271,
      "acters": 5272,
      "average": 5273,
      "If": 5274,
      "âķĲ": 5275,
      "NG": 5276,
      "pn": 5277,
      "fold": 5278,
      "999": 5279,
      "Ġsince": 5280,
      "Ġtqdm": 5281,
      "ighbor": 5282,
      "],[": 5283,
      "ĠRa": 5284,
      "Ġverify": 5285,
      "Ġbucket": 5286,
      "Order": 5287,
      "replic": 5288,
      "regex": 5289,
      "123": 5290,
      "WARN": 5291,
      "mas": 5292,
      "cid": 5293,
      "akes": 5294,
      "Ġcar": 5295,
      "Ġdirect": 5296,
      "den": 5297,
      "Ġmany": 5298,
      "One": 5299,
      "aving": 5300,
      "disk": 5301,
      "%%": 5302,
      "orn": 5303,
      "sheet": 5304,
      "Ġnt": 5305,
      "XXXXXXXX": 5306,
      "mix": 5307,
      "records": 5308,
      "Ġdoesn": 5309,
      "Ġdele": 5310,
      "rr": 5311,
      "depend": 5312,
      "Ġ>>": 5313,
      "Ġids": 5314,
      "noun": 5315,
      "parametri": 5316,
      "Ġlook": 5317,
      "Ġcoordinates": 5318,
      "once": 5319,
      "Ġrepo": 5320,
      "Main": 5321,
      "Ġwin": 5322,
      "Loss": 5323,
      "mar": 5324,
      "Ġnullable": 5325,
      "ĠĠĠĠĠĠĠĠĠĠĠĠĠĠĠĠĠĠĠĠĠĠĠĠĠĠĠĠĠĠĠĠĠĠĠĠĠĠĠĠĠ": 5326,
      "$',": 5327,
      "Ġwho": 5328,
      "maining": 5329,
      "Ġplay": 5330,
      "cycle": 5331,
      "quential": 5332,
      "FTWARE": 5333,
      "ĠOutput": 5334,
      "Ġho": 5335,
      "makedirs": 5336,
      "Ġder": 5337,
      "Ġgl": 5338,
      "('_": 5339,
      "dri": 5340,
      "mc": 5341,
      "Tuple": 5342,
      "tyle": 5343,
      "__.__": 5344,
      "selection": 5345,
      "tector": 5346,
      "ros": 5347,
      "tore": 5348,
      "Row": 5349,
      "progress": 5350,
      "Ġexpect": 5351,
      "cross": 5352,
      "Ġscreen": 5353,
      "controller": 5354,
      "Ġassociated": 5355,
      "ao": 5356,
      "tty": 5357,
      "Ġ))": 5358,
      "asset": 5359,
      "origin": 5360,
      "ĠQtGui": 5361,
      "[(": 5362,
      "']]": 5363,
      "media": 5364,
      "setObject": 5365,
      "ali": 5366,
      "Ġdrop": 5367,
      "while": 5368,
      "Ġrand": 5369,
      "Ġuuid": 5370,
      "Sequence": 5371,
      "roy": 5372,
      "ĠInitial": 5373,
      "gui": 5374,
      "Ġconditions": 5375,
      "Ġsite": 5376,
      "logits": 5377,
      "ĠValid": 5378,
      "methods": 5379,
      "Ġts": 5380,
      "country": 5381,
      "Network": 5382,
      "Ġkeras": 5383,
      "Ġwx": 5384,
      "Ġ19": 5385,
      "ational": 5386,
      "mes": 5387,
      "gu": 5388,
      "sport": 5389,
      "Ġoperator": 5390,
      "LOW": 5391,
      "bd": 5392,
      "Sum": 5393,
      "router": 5394,
      "loor": 5395,
      "Ġarea": 5396,
      "Ġinv": 5397,
      "licit": 5398,
      "MODEL": 5399,
      "condition": 5400,
      "Ġsetting": 5401,
      "setObjectName": 5402,
      "Ġinterval": 5403,
      "updated": 5404,
      "tolist": 5405,
      "READ": 5406,
      "Ġdst": 5407,
      "ä¸ª": 5408,
      "Contain": 5409,
      "ialog": 5410,
      "Ġprep": 5411,
      "Ġside": 5412,
      "Ð²": 5413,
      "Format": 5414,
      "quences": 5415,
      ">>>>": 5416,
      "links": 5417,
      "olds": 5418,
      "big": 5419,
      "free": 5420,
      "ĠĠĠĠĠĠĠĠĠĠĠĠĠĠĠĠĠĠĠĠĠĠĠĠĠĠĠĠĠĠĠĠĠĠĠĠĠĠĠĠĠĠĠĠĠĠĠ": 5421,
      "suffix": 5422,
      "033": 5423,
      "setText": 5424,
      "INTER": 5425,
      "]}": 5426,
      "iti": 5427,
      "utc": 5428,
      "crement": 5429,
      "QtCore": 5430,
      "ilities": 5431,
      "Pass": 5432,
      "ane": 5433,
      "utable": 5434,
      "sic": 5435,
      "...\")": 5436,
      "ni": 5437,
      "camera": 5438,
      "Ġtesting": 5439,
      "ticles": 5440,
      "Ass": 5441,
      "publish": 5442,
      "defined": 5443,
      "verify": 5444,
      "workers": 5445,
      "Ġmatches": 5446,
      "weet": 5447,
      "same": 5448,
      "(\"\"": 5449,
      "cogn": 5450,
      "sess": 5451,
      "Ġwarnings": 5452,
      "CLU": 5453,
      "Ġprediction": 5454,
      "sym": 5455,
      "Mon": 5456,
      "/<": 5457,
      "Off": 5458,
      "snapshot": 5459,
      "extension": 5460,
      "æł": 5461,
      "COLOR": 5462,
      "éĩ": 5463,
      "nc": 5464,
      "sizes": 5465,
      "2020": 5466,
      "åĩ": 5467,
      "ĠClient": 5468,
      "sentence": 5469,
      "Multi": 5470,
      "ãģ®": 5471,
      "Ġtile": 5472,
      "ifest": 5473,
      "internal": 5474,
      "arse": 5475,
      "\\\"": 5476,
      "Ġ(-": 5477,
      "ĠĠĠĠĠĠĠĠĠĠĠĠĠĠĠĠĠĠĠĠĠĠĠĠĠĠĠĠĠĠĠĠĠĠĠĠĠĠĠĠĠĠ": 5478,
      "Series": 5479,
      "pto": 5480,
      "ĠNe": 5481,
      "Ab": 5482,
      "tol": 5483,
      "havi": 5484,
      "worker": 5485,
      "voke": 5486,
      "{\"": 5487,
      "ĠMy": 5488,
      "Ġindent": 5489,
      "Ġidenti": 5490,
      "VENT": 5491,
      "ACT": 5492,
      "EM": 5493,
      "crypt": 5494,
      "instances": 5495,
      "Ġgamma": 5496,
      "DATE": 5497,
      "prep": 5498,
      "KEN": 5499,
      "Description": 5500,
      "8613": 5501,
      "dimension": 5502,
      "Ġcharacter": 5503,
      "ĠSOFTWARE": 5504,
      "*.": 5505,
      "codes": 5506,
      "Ġtool": 5507,
      "glob": 5508,
      "Ġstrings": 5509,
      "++++": 5510,
      "---": 5511,
      "Ġperiod": 5512,
      "parametrize": 5513,
      "0001": 5514,
      "kit": 5515,
      "pot": 5516,
      "rum": 5517,
      "rtual": 5518,
      "Ġseg": 5519,
      "ĠRead": 5520,
      "writ": 5521,
      "ĠRo": 5522,
      "asarray": 5523,
      "cipe": 5524,
      "Ġflat": 5525,
      ")(": 5526,
      "Norm": 5527,
      "oid": 5528,
      "ula": 5529,
      "Ġsaved": 5530,
      "undle": 5531,
      "Bar": 5532,
      "Cap": 5533,
      "rup": 5534,
      "Ġcould": 5535,
      "structor": 5536,
      "]-": 5537,
      "zen": 5538,
      "aker": 5539,
      "cesses": 5540,
      "organ": 5541,
      "Ġbeing": 5542,
      "Ġë": 5543,
      "structure": 5544,
      "iver": 5545,
      "Ġpermission": 5546,
      "hes": 5547,
      "ECT": 5548,
      "enario": 5549,
      "dp": 5550,
      "energy": 5551,
      "Select": 5552,
      "EP": 5553,
      "Ġprovide": 5554,
      "jor": 5555,
      "hood": 5556,
      "USE": 5557,
      "Profile": 5558,
      "mis": 5559,
      "Ã¡": 5560,
      "Ġobs": 5561,
      "pickle": 5562,
      "unic": 5563,
      "sumer": 5564,
      "\"+": 5565,
      "Ġdependencies": 5566,
      "xfe": 5567,
      "Ġri": 5568,
      "Ġquestion": 5569,
      "Ġlon": 5570,
      "]=": 5571,
      "Ġsuch": 5572,
      "Optional": 5573,
      "Ġwriter": 5574,
      "Ġpathlib": 5575,
      "resize": 5576,
      "Ġstandard": 5577,
      "DD": 5578,
      "nx": 5579,
      "Ġcorresponding": 5580,
      "Ġstates": 5581,
      "Ġexport": 5582,
      "Ġcombin": 5583,
      "Ġotherwise": 5584,
      "ighbors": 5585,
      "127": 5586,
      "lev": 5587,
      "positions": 5588,
      "udo": 5589,
      "ives": 5590,
      "double": 5591,
      "formed": 5592,
      "iloc": 5593,
      "program": 5594,
      "identity": 5595,
      "Ġoc": 5596,
      "MT": 5597,
      "Ð¾Ð²": 5598,
      "padding": 5599,
      "isfile": 5600,
      "Ġproblem": 5601,
      "Ġtx": 5602,
      "ĠArgument": 5603,
      "Exp": 5604,
      "Spec": 5605,
      "Ġentries": 5606,
      "Ġyaml": 5607,
      "addWidget": 5608,
      "ĠĠĠĊ": 5609,
      "VERSION": 5610,
      "Ġmost": 5611,
      "ðŁı": 5612,
      "hot": 5613,
      "wrapper": 5614,
      "ergy": 5615,
      "calc": 5616,
      "btn": 5617,
      "ND": 5618,
      "cing": 5619,
      "Ġcolors": 5620,
      "voice": 5621,
      "alled": 5622,
      "contents": 5623,
      "private": 5624,
      "crop": 5625,
      "ĠAR": 5626,
      "101": 5627,
      "Font": 5628,
      "Target": 5629,
      "wiki": 5630,
      "å¼": 5631,
      "uman": 5632,
      "ublic": 5633,
      "Transform": 5634,
      "mid": 5635,
      "='',": 5636,
      ")\")": 5637,
      "changed": 5638,
      "city": 5639,
      "MAP": 5640,
      "savefig": 5641,
      "ĠÐ¿": 5642,
      "eries": 5643,
      "otor": 5644,
      "AUTH": 5645,
      "dn": 5646,
      "begin": 5647,
      "Ġwould": 5648,
      "strument": 5649,
      "men": 5650,
      "functions": 5651,
      "Ġorigin": 5652,
      "Ġasyncio": 5653,
      "UID": 5654,
      "assertFalse": 5655,
      "phi": 5656,
      "ĠAttribute": 5657,
      "operation": 5658,
      "Matrix": 5659,
      "measure": 5660,
      "Settings": 5661,
      "warn": 5662,
      "Tri": 5663,
      "Ġmesh": 5664,
      "Ġtake": 5665,
      "Ġfake": 5666,
      "Ġbelow": 5667,
      "Ġfetch": 5668,
      "Ġforms": 5669,
      "Author": 5670,
      "Ġnb": 5671,
      ")'": 5672,
      "Ġcondition": 5673,
      "mkdir": 5674,
      "hicle": 5675,
      "ogram": 5676,
      "ava": 5677,
      "builder": 5678,
      "aper": 5679,
      "fr": 5680,
      "Control": 5681,
      "pin": 5682,
      "Ġrights": 5683,
      "Ġ</": 5684,
      "Ġ256": 5685,
      "transaction": 5686,
      "stant": 5687,
      "Ġindic": 5688,
      "Pos": 5689,
      "Ġanswer": 5690,
      "gene": 5691,
      "PR": 5692,
      "Ñĩ": 5693,
      "entropy": 5694,
      "listdir": 5695,
      "iso": 5696,
      "Ġchannels": 5697,
      "Ġlibrary": 5698,
      "Sim": 5699,
      "Binary": 5700,
      "ras": 5701,
      "Ġbl": 5702,
      "BASE": 5703,
      "Ġnoise": 5704,
      "kind": 5705,
      "Step": 5706,
      "ĠObject": 5707,
      "Names": 5708,
      "cwd": 5709,
      "Ġadditional": 5710,
      "ug": 5711,
      "titem": 5712,
      "Ġmonth": 5713,
      "}',": 5714,
      "ascii": 5715,
      "ĠRuntimeError": 5716,
      "Ġlearning": 5717,
      "Ġcer": 5718,
      "Vector": 5719,
      "Ġinsert": 5720,
      "Ġupper": 5721,
      "Ġchoices": 5722,
      "Ġpartial": 5723,
      "Ġcommit": 5724,
      "lookup": 5725,
      "ĠMA": 5726,
      "sertion": 5727,
      "ĠLI": 5728,
      "Sup": 5729,
      "ĠSk": 5730,
      "Ġalgorithm": 5731,
      "Ġpredictions": 5732,
      "Ġtab": 5733,
      "analysis": 5734,
      "decoder": 5735,
      "ĠEvent": 5736,
      "Ġcomplete": 5737,
      "Component": 5738,
      "Ġgenerator": 5739,
      "Ġidentifier": 5740,
      "switch": 5741,
      "Ġlowest": 5742,
      "Ġ\"{}": 5743,
      "============": 5744,
      "dian": 5745,
      "lists": 5746,
      "ĠWHERE": 5747,
      "serve": 5748,
      "Position": 5749,
      "ÑģÑĤ": 5750,
      "Ġreason": 5751,
      "Channel": 5752,
      "security": 5753,
      "Ã£": 5754,
      "Ġretrie": 5755,
      "ĠSystem": 5756,
      "Ġ80": 5757,
      "VI": 5758,
      "ka": 5759,
      "=='": 5760,
      "ration": 5761,
      "liter": 5762,
      "Ġrelative": 5763,
      "Ġspeed": 5764,
      "ffect": 5765,
      "Ġprice": 5766,
      "environment": 5767,
      "Ġ102": 5768,
      "geo": 5769,
      "assertEquals": 5770,
      "'})": 5771,
      ".)": 5772,
      "localhost": 5773,
      "æī": 5774,
      "Ġ~": 5775,
      "ìĿ": 5776,
      "apps": 5777,
      "initializer": 5778,
      "ĠUnit": 5779,
      "ĠDes": 5780,
      "JECT": 5781,
      "nections": 5782,
      "Ã§": 5783,
      "Ġbackground": 5784,
      "Ġtheta": 5785,
      "background": 5786,
      "RIGHT": 5787,
      "Mark": 5788,
      "Ġseries": 5789,
      "Ġctypes": 5790,
      "Ġfname": 5791,
      "ĠLoc": 5792,
      "Ġmeasure": 5793,
      "Ġnormalize": 5794,
      "------------------------": 5795,
      "processed": 5796,
      "Expression": 5797,
      "itter": 5798,
      "iltin": 5799,
      "Ġans": 5800,
      "should": 5801,
      "Ġspecify": 5802,
      "mass": 5803,
      "eno": 5804,
      "okie": 5805,
      "eps": 5806,
      "angles": 5807,
      "Pi": 5808,
      "vie": 5809,
      "concatenate": 5810,
      "geometry": 5811,
      "IntegerField": 5812,
      "Ġ'+": 5813,
      "Tran": 5814,
      "Ġsleep": 5815,
      "Ġlayout": 5816,
      "Ġconstraint": 5817,
      "Ġshell": 5818,
      "Ġsentence": 5819,
      "Ġclear": 5820,
      "Ġmeans": 5821,
      "pairs": 5822,
      "/(": 5823,
      "My": 5824,
      "ools": 5825,
      "green": 5826,
      "Ġduration": 5827,
      "Ã£o": 5828,
      "rd": 5829,
      "izes": 5830,
      "={}": 5831,
      "roid": 5832,
      "Helper": 5833,
      "OB": 5834,
      "acing": 5835,
      "Ġterm": 5836,
      "alias": 5837,
      "idual": 5838,
      "gits": 5839,
      "Ð´": 5840,
      "linspace": 5841,
      "submit": 5842,
      "Ġparti": 5843,
      "Ġput": 5844,
      "Man": 5845,
      "imshow": 5846,
      "Ġdataframe": 5847,
      "alchemy": 5848,
      "Boolean": 5849,
      "ĠExt": 5850,
      "laces": 5851,
      "attach": 5852,
      "Ġalways": 5853,
      "DING": 5854,
      "rector": 5855,
      "ĠIter": 5856,
      "ĠMake": 5857,
      "800": 5858,
      "prediction": 5859,
      "Header": 5860,
      "ĠIndex": 5861,
      "ied": 5862,
      "ččĊ": 5863,
      "effect": 5864,
      "Uni": 5865,
      "Dialog": 5866,
      "Ġinstances": 5867,
      "ĠTemp": 5868,
      "Ali": 5869,
      "Ġexpression": 5870,
      "defaults": 5871,
      "Ġthreading": 5872,
      "DR": 5873,
      "xfc": 5874,
      "istration": 5875,
      "Feature": 5876,
      "!')": 5877,
      "Ġ500": 5878,
      "Ġpresent": 5879,
      "âĶĢâĶĢâĶĢâĶĢ": 5880,
      "primary": 5881,
      "ĠĠĠĠĠĠĠĠĠĠĠĠĠĠĠĠĠĠĠĠĠĠĠĠĠĠĠĠĠĠĠĠĠĠĠĠĠĠĠĠĠĠĠĠ": 5882,
      "ĠDef": 5883,
      "tar": 5884,
      "Ġdestination": 5885,
      "gz": 5886,
      "seline": 5887,
      "library": 5888,
      "Ġsymbol": 5889,
      "Ġbegin": 5890,
      "=[]": 5891,
      "+=": 5892,
      "Ġsmall": 5893,
      "lide": 5894,
      "UI": 5895,
      "maps": 5896,
      "decay": 5897,
      "Delete": 5898,
      "Ġrequire": 5899,
      "enc": 5900,
      "Style": 5901,
      "dash": 5902,
      "1234": 5903,
      "Ġprotocol": 5904,
      "_)": 5905,
      "Ġphase": 5906,
      "uniprot": 5907,
      "ROOT": 5908,
      "Sk": 5909,
      "ĠMessage": 5910,
      "ventory": 5911,
      "Types": 5912,
      "ette": 5913,
      "xpath": 5914,
      "Ġvol": 5915,
      "Plot": 5916,
      "VICE": 5917,
      "credentials": 5918,
      "poly": 5919,
      "Ġautom": 5920,
      "Ġdisk": 5921,
      "æį®": 5922,
      "sired": 5923,
      "DU": 5924,
      "subprocess": 5925,
      "break": 5926,
      "reply": 5927,
      "Ġmodify": 5928,
      "TS": 5929,
      "ĠGo": 5930,
      "('<": 5931,
      "ks": 5932,
      "Ġedges": 5933,
      "Cluster": 5934,
      "ientation": 5935,
      "ĠOTHER": 5936,
      "atient": 5937,
      "ffic": 5938,
      "LINE": 5939,
      "xs": 5940,
      "></": 5941,
      "Ġaccuracy": 5942,
      "Ġtasks": 5943,
      "anner": 5944,
      "serializer": 5945,
      "æĺ¯": 5946,
      "ĠLine": 5947,
      "Rect": 5948,
      "limiter": 5949,
      "âķĲâķĲ": 5950,
      "CAS": 5951,
      "LIST": 5952,
      "801": 5953,
      "REQU": 5954,
      "Ġfo": 5955,
      "monitor": 5956,
      "ital": 5957,
      ":'": 5958,
      "Ġ2020": 5959,
      ")**": 5960,
      "linalg": 5961,
      "ĠBy": 5962,
      "activation": 5963,
      "Ġvia": 5964,
      "Url": 5965,
      "VID": 5966,
      "uess": 5967,
      "ĠVariable": 5968,
      "Ġupload": 5969,
      "termine": 5970,
      "Ġavg": 5971,
      "Ġtermin": 5972,
      "ĠLanguage": 5973,
      "Sample": 5974,
      "wall": 5975,
      "dummy": 5976,
      "Ġcamera": 5977,
      "ĠTra": 5978,
      "Interface": 5979,
      "tz": 5980,
      "refresh": 5981,
      "TIC": 5982,
      "Ġengine": 5983,
      "PIO": 5984,
      "OO": 5985,
      "ĠGroup": 5986,
      "inator": 5987,
      "Ġencoder": 5988,
      "entities": 5989,
      "ĠInter": 5990,
      "MB": 5991,
      "bet": 5992,
      "scene": 5993,
      "aris": 5994,
      "Ġprogress": 5995,
      "DC": 5996,
      "Ġord": 5997,
      "external": 5998,
      "Ġchanged": 5999,
      "duc": 6000,
      "xef": 6001,
      "ĠDB": 6002,
      "failed": 6003,
      "Ġbottom": 6004,
      "Area": 6005,
      "operator": 6006,
      "cells": 6007,
      "(',": 6008,
      "scalar": 6009,
      "Ġcontents": 6010,
      "Ġcross": 6011,
      ":\")": 6012,
      "allet": 6013,
      "Ġstored": 6014,
      "Ġexclude": 6015,
      "åıĸ": 6016,
      "Ġbi": 6017,
      "aut": 6018,
      "workflow": 6019,
      "Custom": 6020,
      "ARY": 6021,
      "Ġfinally": 6022,
      "ypes": 6023,
      "Ġgrad": 6024,
      "analy": 6025,
      "Ġroute": 6026,
      "processor": 6027,
      "resses": 6028,
      "episode": 6029,
      "Ġcheckpoint": 6030,
      "ygon": 6031,
      "pkg": 6032,
      "abilities": 6033,
      "Attr": 6034,
      "Ġnotice": 6035,
      "CADE": 6036,
      "tegration": 6037,
      "ev": 6038,
      "éĢ": 6039,
      "hi": 6040,
      "Ġsolution": 6041,
      "åľ": 6042,
      "runner": 6043,
      "ium": 6044,
      "Ġbranch": 6045,
      "riterion": 6046,
      "etadata": 6047,
      "Ġfontsize": 6048,
      "att": 6049,
      "deredDict": 6050,
      "Match": 6051,
      "Ġfi": 6052,
      "Ġexperiment": 6053,
      "Ġinte": 6054,
      "ells": 6055,
      "ysql": 6056,
      "LS": 6057,
      "Ġconstants": 6058,
      "xbf": 6059,
      "uding": 6060,
      "scripts": 6061,
      "}/{": 6062,
      "allclose": 6063,
      "Ġworld": 6064,
      "ĠMock": 6065,
      "Ġproj": 6066,
      "512": 6067,
      "uest": 6068,
      "ï¼ļ": 6069,
      "xdf": 6070,
      "Ġpublic": 6071,
      "ighted": 6072,
      "tences": 6073,
      "Unit": 6074,
      "Width": 6075,
      "Ġhour": 6076,
      "ANG": 6077,
      "Ġpackages": 6078,
      "scriptor": 6079,
      "share": 6080,
      "pages": 6081,
      "ges": 6082,
      "Ġstar": 6083,
      "xed": 6084,
      "Ġlinear": 6085,
      "Ġinitialize": 6086,
      "Ġxy": 6087,
      "Ġdefaults": 6088,
      "xcf": 6089,
      "LAY": 6090,
      "tables": 6091,
      "hostname": 6092,
      "Grid": 6093,
      "ality": 6094,
      "cluding": 6095,
      "ĠHttpResponse": 6096,
      "raft": 6097,
      "contains": 6098,
      "Can": 6099,
      "mbols": 6100,
      "ball": 6101,
      "ÐµÐ½": 6102,
      "Ġlock": 6103,
      "ulator": 6104,
      "MAGE": 6105,
      "lished": 6106,
      "Ġtransaction": 6107,
      "ple": 6108,
      "Configuration": 6109,
      "Ġstage": 6110,
      "Ġfra": 6111,
      "Ġbad": 6112,
      "::::": 6113,
      "ORS": 6114,
      "Rel": 6115,
      "ä¿": 6116,
      "Ġreceived": 6117,
      "orary": 6118,
      "Ġtoo": 6119,
      "PY": 6120,
      "phone": 6121,
      "}_": 6122,
      "scatter": 6123,
      "eam": 6124,
      "usage": 6125,
      "week": 6126,
      "xyz": 6127,
      "bc": 6128,
      "Ġdocumentation": 6129,
      "ĠArray": 6130,
      "Ġenable": 6131,
      "ĠAS": 6132,
      "scheduler": 6133,
      "Ġchanges": 6134,
      "Val": 6135,
      "stock": 6136,
      "bf": 6137,
      "Host": 6138,
      "canvas": 6139,
      "activ": 6140,
      "Ġrospy": 6141,
      "Ġrequires": 6142,
      "Ġradius": 6143,
      "Ġdiscord": 6144,
      "robot": 6145,
      "PH": 6146,
      "phy": 6147,
      "Pol": 6148,
      "Ġfix": 6149,
      "guild": 6150,
      "tries": 6151,
      "Ġkeyword": 6152,
      "variance": 6153,
      "Ġfixed": 6154,
      "pie": 6155,
      "flush": 6156,
      "Ġterms": 6157,
      "Ġowner": 6158,
      "goal": 6159,
      "predictions": 6160,
      "WE": 6161,
      "mn": 6162,
      "ĠSp": 6163,
      "cred": 6164,
      "Ġwrapper": 6165,
      "********************************": 6166,
      "Ġenti": 6167,
      "lastic": 6168,
      "Parameters": 6169,
      "probs": 6170,
      "________________": 6171,
      "Build": 6172,
      "ä¸º": 6173,
      "integer": 6174,
      "å°": 6175,
      "bt": 6176,
      "tils": 6177,
      "ights": 6178,
      "Ġdefine": 6179,
      "shared": 6180,
      "RecName": 6181,
      "Ġus": 6182,
      "Ġdatasets": 6183,
      "Ġntuniprot": 6184,
      "ĠForm": 6185,
      "hello": 6186,
      "Ġnd": 6187,
      "OLDER": 6188,
      "Dep": 6189,
      "Ġduring": 6190,
      "ov": 6191,
      "Web": 6192,
      "supported": 6193,
      "locations": 6194,
      "Lib": 6195,
      "Ġcop": 6196,
      "Ġ37": 6197,
      "registry": 6198,
      "Post": 6199,
      "css": 6200,
      "Ġfalse": 6201,
      "Track": 6202,
      "Jo": 6203,
      "Generator": 6204,
      "bre": 6205,
      "ĠDjango": 6206,
      "Ġdeep": 6207,
      "Metri": 6208,
      "outer": 6209,
      "Ġcharacters": 6210,
      "lapsed": 6211,
      "](": 6212,
      "partition": 6213,
      "Initial": 6214,
      "TOKEN": 6215,
      "decor": 6216,
      "Reference": 6217,
      "wn": 6218,
      "det": 6219,
      "imation": 6220,
      "lities": 6221,
      "SU": 6222,
      "UNT": 6223,
      "dictionary": 6224,
      "pher": 6225,
      "Ġloaded": 6226,
      "visit": 6227,
      ",))": 6228,
      "Files": 6229,
      "Ġleg": 6230,
      "OM": 6231,
      "ough": 6232,
      "devices": 6233,
      "ring": 6234,
      "DEF": 6235,
      "Ġneeds": 6236,
      "ĉĉĉĉĉĉ": 6237,
      "Pin": 6238,
      "ĠSE": 6239,
      "Ġdec": 6240,
      "cert": 6241,
      "Ġkind": 6242,
      "candidate": 6243,
      "Ġparts": 6244,
      "shell": 6245,
      "xdb": 6246,
      "EXT": 6247,
      "FE": 6248,
      "agic": 6249,
      "expression": 6250,
      "gray": 6251,
      "reat": 6252,
      "ĠUni": 6253,
      "ior": 6254,
      "CASCADE": 6255,
      "projects": 6256,
      "ĠTask": 6257,
      "Pa": 6258,
      "uplicate": 6259,
      "Ġimplemented": 6260,
      "ĠPAR": 6261,
      "Ġanother": 6262,
      "Account": 6263,
      "ĠNet": 6264,
      "Ġev": 6265,
      "çĽ": 6266,
      "Ġrecords": 6267,
      "Ġspect": 6268,
      "fies": 6269,
      "Ġdisp": 6270,
      "members": 6271,
      "deploy": 6272,
      "reason": 6273,
      "Ġdump": 6274,
      "sources": 6275,
      "ĠĠĠĠĠĠĠĠĠĠĠĠĠĠĠĠĠĠĠĠĠĠĠĠĠĠĠĠĠĠĠĠĠĠĠĠĠĠĠĠĠĠĠĠĠ": 6276,
      "utation": 6277,
      "Ġgoogle": 6278,
      "RGB": 6279,
      "Go": 6280,
      "rome": 6281,
      "Ġteam": 6282,
      "fidence": 6283,
      "('.": 6284,
      "dy": 6285,
      "MIT": 6286,
      "Queue": 6287,
      "ĠRegister": 6288,
      "='<": 6289,
      "xbd": 6290,
      "Ġ\"\")": 6291,
      "moves": 6292,
      "Ġshuffle": 6293,
      "ĠDate": 6294,
      "Hist": 6295,
      "Values": 6296,
      "setting": 6297,
      "Ġlists": 6298,
      "mediate": 6299,
      "åį": 6300,
      "ĠConv": 6301,
      "]]:": 6302,
      "accept": 6303,
      "Ġ400": 6304,
      "'re": 6305,
      "embeddings": 6306,
      "Av": 6307,
      "NOT": 6308,
      "tur": 6309,
      "tel": 6310,
      "strings": 6311,
      "Ġstarting": 6312,
      "Ġstatic": 6313,
      "2018": 6314,
      "Ġreserved": 6315,
      "Ġmodules": 6316,
      "clusters": 6317,
      "Ġdimensions": 6318,
      "Ġuses": 6319,
      "Ġcandidate": 6320,
      "Ġslice": 6321,
      "Ġserializer": 6322,
      "xde": 6323,
      "Over": 6324,
      "mol": 6325,
      "Ġreader": 6326,
      "timer": 6327,
      "derer": 6328,
      "å½": 6329,
      "cam": 6330,
      "TEXT": 6331,
      "Current": 6332,
      "fixed": 6333,
      "activity": 6334,
      "actual": 6335,
      "'\"": 6336,
      "Ġrect": 6337,
      "Ġcols": 6338,
      "Ġincluded": 6339,
      "Ġlight": 6340,
      "Sele": 6341,
      "FLAGS": 6342,
      "visible": 6343,
      "distribution": 6344,
      "chan": 6345,
      "ssh": 6346,
      "Cache": 6347,
      "normalize": 6348,
      "sensor": 6349,
      "Ġleast": 6350,
      "modified": 6351,
      "REG": 6352,
      "Ġappro": 6353,
      "``.": 6354,
      "configure": 6355,
      "abstractmethod": 6356,
      "uch": 6357,
      "00000": 6358,
      ":\"": 6359,
      "Ġensure": 6360,
      "migrations": 6361,
      "Ġ*,": 6362,
      "xfb": 6363,
      "patterns": 6364,
      "Ġinterpol": 6365,
      "ĠCommand": 6366,
      ">=": 6367,
      "DateTimeField": 6368,
      "æķ°æį®": 6369,
      "multip": 6370,
      "configs": 6371,
      "xce": 6372,
      "zon": 6373,
      "BE": 6374,
      "Formatter": 6375,
      "ãĥ¼": 6376,
      "xbe": 6377,
      ",),": 6378,
      "Ġbg": 6379,
      "cular": 6380,
      "Ġplease": 6381,
      "===": 6382,
      "Ġtw": 6383,
      "Ġ[])": 6384,
      "Ġarti": 6385,
      "cov": 6386,
      "rays": 6387,
      "Ġ23": 6388,
      "xaf": 6389,
      "Example": 6390,
      "Ġuntil": 6391,
      "aves": 6392,
      "tl": 6393,
      "Ġstderr": 6394,
      "ERS": 6395,
      "marker": 6396,
      "')]": 6397,
      "Ġdefinition": 6398,
      "udy": 6399,
      "Access": 6400,
      "Ġoutfile": 6401,
      "repeat": 6402,
      "tics": 6403,
      "permissions": 6404,
      "Ġtransforms": 6405,
      "Fin": 6406,
      "ssl": 6407,
      "spaces": 6408,
      "600": 6409,
      "duced": 6410,
      "assertIn": 6411,
      "Ġaccept": 6412,
      "xfd": 6413,
      "Collection": 6414,
      "gers": 6415,
      "Any": 6416,
      "IF": 6417,
      "erc": 6418,
      "ĠFe": 6419,
      "plugins": 6420,
      "Cor": 6421,
      "Ġpositive": 6422,
      "Ġminimum": 6423,
      "ĠClo": 6424,
      "atest": 6425,
      "Ġ*=": 6426,
      "ORY": 6427,
      "Ġresources": 6428,
      "Ġoprot": 6429,
      "hold": 6430,
      "tage": 6431,
      "ands": 6432,
      "Ġcontact": 6433,
      "Ġrelation": 6434,
      "Ġcomm": 6435,
      "matches": 6436,
      "alette": 6437,
      "servations": 6438,
      "AME": 6439,
      "CODE": 6440,
      "indent": 6441,
      "Ġseen": 6442,
      "annotation": 6443,
      "xi": 6444,
      "precision": 6445,
      "ĠStat": 6446,
      "Local": 6447,
      "rename": 6448,
      "Ġscan": 6449,
      "Ġattrs": 6450,
      "Wrapper": 6451,
      "å¯": 6452,
      "VALID": 6453,
      "ilt": 6454,
      "Reader": 6455,
      "elem": 6456,
      "tot": 6457,
      "Ġ2021": 6458,
      "Ġevaluate": 6459,
      "lec": 6460,
      "quote": 6461,
      "Ġcalc": 6462,
      "...,": 6463,
      "Ġfreq": 6464,
      "digest": 6465,
      "TC": 6466,
      "moid": 6467,
      "connected": 6468,
      "Menu": 6469,
      "Ġwere": 6470,
      "Ġmaster": 6471,
      "Ġms": 6472,
      "dde": 6473,
      "Ġ21": 6474,
      "perm": 6475,
      "ĠResource": 6476,
      "eng": 6477,
      "Ġturn": 6478,
      "Ġremoved": 6479,
      "Ġitertools": 6480,
      "Ġps": 6481,
      "ĠWhen": 6482,
      "Ġsess": 6483,
      "\\'": 6484,
      "aggreg": 6485,
      "Ġoccur": 6486,
      "2017": 6487,
      "dients": 6488,
      "support": 6489,
      "LY": 6490,
      "Ġhome": 6491,
      "losses": 6492,
      "Ġlater": 6493,
      "dates": 6494,
      "Storage": 6495,
      "Enter": 6496,
      "Ġvocab": 6497,
      "calls": 6498,
      "Ġelem": 6499,
      "ĠProcess": 6500,
      "NU": 6501,
      "Ġroom": 6502,
      "ĠMax": 6503,
      "choices": 6504,
      "Ġnegative": 6505,
      "ian": 6506,
      "related": 6507,
      "ij": 6508,
      "readline": 6509,
      "unicode": 6510,
      "deletion": 6511,
      "360": 6512,
      "Ġimplementation": 6513,
      "Ġ{})": 6514,
      "Stack": 6515,
      "Gen": 6516,
      "allen": 6517,
      "logical": 6518,
      "pet": 6519,
      "console": 6520,
      "exclude": 6521,
      "Ġrepresentation": 6522,
      "1111": 6523,
      "Title": 6524,
      "ĠĠĠĠĠĠĠĠĠĠĠĠĠĠĠĠĠĠĠĠĠĠĠĠĠĠĠĠĠĠĠĠĠĠĠĠĠĠĠĠĠĠĠĠĠĠĠĠĠĠĠ": 6525,
      "xfa": 6526,
      "cessary": 6527,
      "Ġappend": 6528,
      "helpers": 6529,
      "oom": 6530,
      "regular": 6531,
      "Tool": 6532,
      "Word": 6533,
      "lider": 6534,
      "Ġ22": 6535,
      "bul": 6536,
      "Ġchildren": 6537,
      "xbc": 6538,
      "ĠĠĠĠĠĠĠĠĠĠĠĠĠĠĠĠĠĠĠĠĠĠĠĠĠĠĠĠĠĠĠĠĠĠĠĠĠĠĠĠĠĠĠĠĠĠ": 6539,
      "square": 6540,
      "Controller": 6541,
      "SCR": 6542,
      "ĠTrain": 6543,
      "nored": 6544,
      "Encoder": 6545,
      "butions": 6546,
      "small": 6547,
      "Print": 6548,
      "ReLU": 6549,
      "ĠPin": 6550,
      "pkl": 6551,
      "xae": 6552,
      "Part": 6553,
      "xeb": 6554,
      "Ġeps": 6555,
      "Random": 6556,
      "SM": 6557,
      "strategy": 6558,
      "Ġpublish": 6559,
      "partial": 6560,
      "Ġratio": 6561,
      "issue": 6562,
      "quality": 6563,
      "IX": 6564,
      "Ġserialize": 6565,
      "ĠPlot": 6566,
      "Ġhistory": 6567,
      ">.": 6568,
      "character": 6569,
      "Ġcomponents": 6570,
      "Wh": 6571,
      "ctools": 6572,
      "Ġframes": 6573,
      "Ġdefaultdict": 6574,
      "Ġworker": 6575,
      "Ġfore": 6576,
      "vely": 6577,
      "Role": 6578,
      "rozen": 6579,
      "panel": 6580,
      "xac": 6581,
      "material": 6582,
      "ategorical": 6583,
      "Ġenter": 6584,
      "ationError": 6585,
      "Ġrelease": 6586,
      "digit": 6587,
      "transfer": 6588,
      "Ġsol": 6589,
      "Ġprecision": 6590,
      "Entity": 6591,
      "present": 6592,
      "ĠProject": 6593,
      "complex": 6594,
      "horizontal": 6595,
      "contract": 6596,
      "Ġeven": 6597,
      "cube": 6598,
      "Please": 6599,
      "PT": 6600,
      "Ġmi": 6601,
      "override": 6602,
      "lect": 6603,
      "dictor": 6604,
      "Ġgood": 6605,
      "Agent": 6606,
      "ongo": 6607,
      "ĠMan": 6608,
      "Ġnums": 6609,
      "æĸĩ": 6610,
      "Ġè": 6611,
      "locator": 6612,
      "Plugin": 6613,
      "Warning": 6614,
      "Ġiteration": 6615,
      "softmax": 6616,
      "signature": 6617,
      "many": 6618,
      "FR": 6619,
      "bp": 6620,
      "ĠState": 6621,
      "Ġba": 6622,
      "ints": 6623,
      "ĠDefaults": 6624,
      "arest": 6625,
      "ĠClass": 6626,
      "SIG": 6627,
      "templates": 6628,
      "Properties": 6629,
      "sparse": 6630,
      "ORE": 6631,
      "wa": 6632,
      "Ġtopic": 6633,
      "RECT": 6634,
      "AIN": 6635,
      "Ġcopyright": 6636,
      "Ġ%.": 6637,
      "Use": 6638,
      "omial": 6639,
      "ĠFlask": 6640,
      "Ġanalysis": 6641,
      "LR": 6642,
      "Ġchoice": 6643,
      "subplots": 6644,
      "xcb": 6645,
      "Ġdot": 6646,
      "multiple": 6647,
      "lies": 6648,
      "transport": 6649,
      "pipe": 6650,
      "ĠNew": 6651,
      "conver": 6652,
      "Ġpt": 6653,
      "vertices": 6654,
      "Container": 6655,
      ">')": 6656,
      "ĠStart": 6657,
      "Ġinternal": 6658,
      "ĠCur": 6659,
      "classifier": 6660,
      "rotation": 6661,
      "Ġfrequency": 6662,
      "numbers": 6663,
      "Ġsuffix": 6664,
      "surface": 6665,
      "AV": 6666,
      "onal": 6667,
      "Ġmetavar": 6668,
      "health": 6669,
      "TF": 6670,
      "cial": 6671,
      "yes": 6672,
      "120": 6673,
      "Flow": 6674,
      "nr": 6675,
      "Ġmatching": 6676,
      "()}": 6677,
      "problem": 6678,
      "ĠTH": 6679,
      "LLLL": 6680,
      "åĮ": 6681,
      "utoff": 6682,
      "cases": 6683,
      "Ġregex": 6684,
      "thresh": 6685,
      "redirect": 6686,
      "backup": 6687,
      "kl": 6688,
      "Ġsep": 6689,
      "Ġboolean": 6690,
      "LOC": 6691,
      "Ġtimedelta": 6692,
      "Builder": 6693,
      "unsqueeze": 6694,
      "Rate": 6695,
      "Speci": 6696,
      "Ġum": 6697,
      "imal": 6698,
      "Ġsix": 6699,
      "une": 6700,
      "è¡Į": 6701,
      "clone": 6702,
      "\"'": 6703,
      "Ã³": 6704,
      "ama": 6705,
      "Ġmanager": 6706,
      "endar": 6707,
      "istered": 6708,
      "Ġxrange": 6709,
      "fmt": 6710,
      "ips": 6711,
      "192": 6712,
      "Ġfigure": 6713,
      "ĠImportError": 6714,
      "fl": 6715,
      "Ġcrop": 6716,
      "good": 6717,
      "Ġsec": 6718,
      "initions": 6719,
      "machine": 6720,
      "parti": 6721,
      "Shape": 6722,
      "Cre": 6723,
      "ĠSQL": 6724,
      "Cho": 6725,
      "expect": 6726,
      "categories": 6727,
      "ply": 6728,
      "frequency": 6729,
      "Results": 6730,
      "Ġnx": 6731,
      "Cell": 6732,
      "unknown": 6733,
      "Ġbig": 6734,
      "Ġrecur": 6735,
      "ĠOption": 6736,
      "xdd": 6737,
      "ä¸į": 6738,
      "Ġcases": 6739,
      "tinu": 6740,
      "Bot": 6741,
      "Ġ\"#": 6742,
      "Ġ\"[": 6743,
      "(\"[": 6744,
      "################################################": 6745,
      "SR": 6746,
      "xec": 6747,
      "parsed": 6748,
      "ĠId": 6749,
      "Ġconstant": 6750,
      "using": 6751,
      "Directory": 6752,
      "Sw": 6753,
      "Connect": 6754,
      "agicMock": 6755,
      "Ġschedule": 6756,
      "ulated": 6757,
      "Ġ2019": 6758,
      "Ġcoords": 6759,
      "ony": 6760,
      "bri": 6761,
      "velop": 6762,
      "Ġmodified": 6763,
      "Ter": 6764,
      "ĠPri": 6765,
      "handlers": 6766,
      "Ġprocessed": 6767,
      "walk": 6768,
      "ĠPO": 6769,
      "roadcast": 6770,
      "Ġcompare": 6771,
      "xaa": 6772,
      "Ġ'/'": 6773,
      "jectory": 6774,
      "Writer": 6775,
      "ĠService": 6776,
      "permission": 6777,
      "Ġvisual": 6778,
      "Ġpairs": 6779,
      "ĠLabel": 6780,
      "roles": 6781,
      "ĠDataset": 6782,
      "npy": 6783,
      "Ori": 6784,
      "Ġsignature": 6785,
      "xdc": 6786,
      "Ġque": 6787,
      ":],": 6788,
      "destination": 6789,
      "ymbol": 6790,
      "Ġborder": 6791,
      "Ġ(%": 6792,
      "xee": 6793,
      "Ġcounts": 6794,
      "æŀ": 6795,
      "Ġknow": 6796,
      "Ġusage": 6797,
      "BC": 6798,
      "SY": 6799,
      "ĠCustom": 6800,
      "Required": 6801,
      "ĠCompute": 6802,
      "peak": 6803,
      "xbb": 6804,
      "fla": 6805,
      "Ġent": 6806,
      "ana": 6807,
      "Ġlang": 6808,
      "ĠSpeci": 6809,
      "Classifier": 6810,
      "Embed": 6811,
      "disable": 6812,
      ";\\": 6813,
      "MAG": 6814,
      "PIPE": 6815,
      "Ġrotation": 6816,
      "2000": 6817,
      "Email": 6818,
      "1024": 6819,
      "'%": 6820,
      "ric": 6821,
      "mitted": 6822,
      "wave": 6823,
      "Ġtraceback": 6824,
      "havior": 6825,
      "Programming": 6826,
      "Child": 6827,
      "Ġoverride": 6828,
      "tid": 6829,
      "Ġadj": 6830,
      "/{}": 6831,
      "CF": 6832,
      "nums": 6833,
      "Script": 6834,
      "Ġcla": 6835,
      "Ġred": 6836,
      "urnal": 6837,
      "HEAD": 6838,
      "Ġbasic": 6839,
      "Ġgene": 6840,
      "Ġfs": 6841,
      "æĪĲ": 6842,
      "ilarity": 6843,
      "definition": 6844,
      "emory": 6845,
      "shuffle": 6846,
      "Ġboxes": 6847,
      "Ð¿": 6848,
      "xcc": 6849,
      "OF": 6850,
      "ç½": 6851,
      "oration": 6852,
      "wers": 6853,
      "ĠOnly": 6854,
      "ions": 6855,
      "Last": 6856,
      "vertical": 6857,
      "Ġproc": 6858,
      "xcd": 6859,
      "Ġpara": 6860,
      "Report": 6861,
      "Ġvo": 6862,
      "aging": 6863,
      "Ġexecution": 6864,
      "each": 6865,
      "sender": 6866,
      "}]": 6867,
      "standard": 6868,
      "iness": 6869,
      "placeholder": 6870,
      ":{": 6871,
      "rv": 6872,
      "Ġlst": 6873,
      "()).": 6874,
      "strap": 6875,
      "evaluate": 6876,
      "Ġgot": 6877,
      "orth": 6878,
      "ĠGraph": 6879,
      "XXX": 6880,
      "[:]": 6881,
      "Ġ2018": 6882,
      "named": 6883,
      "ĠToken": 6884,
      "xad": 6885,
      "compare": 6886,
      "ĠÑģ": 6887,
      "bud": 6888,
      "corr": 6889,
      "ĠIO": 6890,
      "Ġpoly": 6891,
      "adv": 6892,
      "å¾": 6893,
      "Ġinner": 6894,
      "Ġwrap": 6895,
      "bos": 6896,
      "coeff": 6897,
      "TypeError": 6898,
      "Only": 6899,
      "ORK": 6900,
      "iteral": 6901,
      "ĠMIT": 6902,
      "sical": 6903,
      "annotations": 6904,
      "grees": 6905,
      "flip": 6906,
      "vertex": 6907,
      "chronous": 6908,
      "Ġproxy": 6909,
      "ä¸Ń": 6910,
      "Ġmenu": 6911,
      "WR": 6912,
      "attention": 6913,
      "ĠWork": 6914,
      "arp": 6915,
      "Ġden": 6916,
      "Windows": 6917,
      "article": 6918,
      "allback": 6919,
      "\"]),": 6920,
      "DP": 6921,
      "inger": 6922,
      "Ġest": 6923,
      "separ": 6924,
      "Ġetc": 6925,
      "Head": 6926,
      "xda": 6927,
      "tice": 6928,
      "subscription": 6929,
      "runtime": 6930,
      "ASK": 6931,
      "uv": 6932,
      "Ax": 6933,
      "Ġconstruct": 6934,
      "detach": 6935,
      "æĹ¶": 6936,
      "Ġcredentials": 6937,
      "lm": 6938,
      "Ġsqlalchemy": 6939,
      "99999999": 6940,
      "æľī": 6941,
      "ĠOrderedDict": 6942,
      "Ġdivision": 6943,
      "ĠSH": 6944,
      "ĠMulti": 6945,
      "Ġgradient": 6946,
      "dense": 6947,
      "esc": 6948,
      "APP": 6949,
      "////////////////": 6950,
      "Ġinplace": 6951,
      "ĠBuild": 6952,
      "Ġdecor": 6953,
      "alan": 6954,
      "Ġspecial": 6955,
      "isdir": 6956,
      "æĿ": 6957,
      "squ": 6958,
      "argmax": 6959,
      "ĠFlag": 6960,
      "Ġpercent": 6961,
      "Ġ90": 6962,
      "Database": 6963,
      "arison": 6964,
      "Simple": 6965,
      "tempt": 6966,
      "Ġsnapshot": 6967,
      "sampling": 6968,
      "MPL": 6969,
      "hyper": 6970,
      "course": 6971,
      "Category": 6972,
      "Ġdeleted": 6973,
      "AY": 6974,
      "pic": 6975,
      "IZ": 6976,
      "utdown": 6977,
      "rho": 6978,
      "Ġsecret": 6979,
      "omentum": 6980,
      "uses": 6981,
      "asc": 6982,
      "Write": 6983,
      "[[": 6984,
      "Ġasset": 6985,
      "Ġembedding": 6986,
      "Ġcms": 6987,
      ",\\": 6988,
      "Created": 6989,
      "Ġdecoder": 6990,
      "plus": 6991,
      "LD": 6992,
      "Ġsets": 6993,
      "aster": 6994,
      "Ġyet": 6995,
      "ĠInt": 6996,
      "Geometry": 6997,
      "aux": 6998,
      "Ġenergy": 6999,
      "Unknown": 7000,
      "zed": 7001,
      "LOAD": 7002,
      "tives": 7003,
      "cover": 7004,
      "ĠRemove": 7005,
      "STRING": 7006,
      "401": 7007,
      "ĠSN": 7008,
      "browser": 7009,
      "Ġless": 7010,
      "budget": 7011,
      "stride": 7012,
      "ĠÐ²": 7013,
      "Ġrules": 7014,
      "Folder": 7015,
      "subset": 7016,
      "versions": 7017,
      "TextField": 7018,
      "ĠGenerated": 7019,
      "535": 7020,
      "Ġreply": 7021,
      "Ġtempfile": 7022,
      "Ġ28": 7023,
      "aged": 7024,
      "Ġepochs": 7025,
      "median": 7026,
      "Ġhyper": 7027,
      "Ġpositions": 7028,
      "docker": 7029,
      "backward": 7030,
      "Ġretry": 7031,
      "family": 7032,
      "Ġaudio": 7033,
      "stit": 7034,
      "Ġmid": 7035,
      "Almost": 7036,
      "threads": 7037,
      "Ġ--------------------------------": 7038,
      "cording": 7039,
      "Ġcurrently": 7040,
      "éĹ": 7041,
      "Ġpredicted": 7042,
      "ĠVer": 7043,
      "LOCK": 7044,
      "xab": 7045,
      "Ġmis": 7046,
      "gres": 7047,
      "Stop": 7048,
      "readlines": 7049,
      "lite": 7050,
      "crease": 7051,
      "flux": 7052,
      "Ġdx": 7053,
      "vered": 7054,
      "Ġalong": 7055,
      "front": 7056,
      "ĠPost": 7057,
      "coordinates": 7058,
      "Ġmac": 7059,
      "Ġblocks": 7060,
      "Ġaut": 7061,
      "FC": 7062,
      "Ġcut": 7063,
      "3333": 7064,
      "border": 7065,
      "ology": 7066,
      "Ġmd": 7067,
      "generic": 7068,
      "Ġarrays": 7069,
      "ems": 7070,
      "attrib": 7071,
      "ĠTEST": 7072,
      "Users": 7073,
      "Ġexceptions": 7074,
      "Lim": 7075,
      "Ġbs": 7076,
      "Ġvm": 7077,
      "Ġlookup": 7078,
      "FIX": 7079,
      "strict": 7080,
      "ĠCode": 7081,
      "Ġ45": 7082,
      "rx": 7083,
      "ä»¶": 7084,
      "Ġ------------------------------------------------------------------------": 7085,
      "xca": 7086,
      "vl": 7087,
      "fb": 7088,
      "xea": 7089,
      "...')": 7090,
      "Ġcc": 7091,
      "retry": 7092,
      "Ġeq": 7093,
      "Ġpur": 7094,
      "Dec": 7095,
      "eg": 7096,
      "Ġdelay": 7097,
      "without": 7098,
      "Ġ300": 7099,
      "preds": 7100,
      "Ġtol": 7101,
      "sistent": 7102,
      "STATE": 7103,
      "currency": 7104,
      "floor": 7105,
      "Ġdesired": 7106,
      "ĠInvalid": 7107,
      "Ġworking": 7108,
      "Sequential": 7109,
      "quick": 7110,
      "Display": 7111,
      "reater": 7112,
      "Ġclip": 7113,
      "packet": 7114,
      "SCRIP": 7115,
      "AlmostEqual": 7116,
      "URCE": 7117,
      "gree": 7118,
      "Ġprocessing": 7119,
      "diffe": 7120,
      "Space": 7121,
      "íķ": 7122,
      "åħ¥": 7123,
      "Callback": 7124,
      "Ġhref": 7125,
      "collect": 7126,
      "special": 7127,
      "Ġrec": 7128,
      "Store": 7129,
      "_'": 7130,
      "cipi": 7131,
      "ĠAttributeError": 7132,
      "ĠPoint": 7133,
      "ffff": 7134,
      "ĠMO": 7135,
      "atory": 7136,
      "archive": 7137,
      "ino": 7138,
      "comments": 7139,
      "Ġissue": 7140,
      "\\.": 7141,
      "LED": 7142,
      "æİ": 7143,
      "ada": 7144,
      "åĢ": 7145,
      "watch": 7146,
      "Coord": 7147,
      "Ġautomatic": 7148,
      "ĠOUT": 7149,
      "Ġprivate": 7150,
      "Ġns": 7151,
      "Ġaddr": 7152,
      "nl": 7153,
      "Ġfuture": 7154,
      "ĠCallable": 7155,
      "dispatch": 7156,
      "catalog": 7157,
      "xba": 7158,
      "Ġdiag": 7159,
      "absolute": 7160,
      "oring": 7161,
      "))]": 7162,
      "inp": 7163,
      "clar": 7164,
      "Scale": 7165,
      "Metadata": 7166,
      "MAIN": 7167,
      "Ġsym": 7168,
      "Ġdays": 7169,
      "lb": 7170,
      "nail": 7171,
      "Ġcent": 7172,
      "Ġtemperature": 7173,
      "Ġannotation": 7174,
      "STATUS": 7175,
      "iles": 7176,
      "quanti": 7177,
      "Keys": 7178,
      "met": 7179,
      "Ġprior": 7180,
      "Ġattention": 7181,
      "VAR": 7182,
      "previous": 7183,
      "Ġphi": 7184,
      "IMIT": 7185,
      "ANCE": 7186,
      "Ġshift": 7187,
      "rectories": 7188,
      "Ġexternal": 7189,
      "Password": 7190,
      "Ġshared": 7191,
      "kg": 7192,
      "temperature": 7193,
      "ĠPublic": 7194,
      "Ġsoup": 7195,
      "Player": 7196,
      "ĠUSE": 7197,
      "major": 7198,
      "ĠGe": 7199,
      "relative": 7200,
      "Ġrobot": 7201,
      "111": 7202,
      "........": 7203,
      "sal": 7204,
      "calculate": 7205,
      "Ġbook": 7206,
      "lecule": 7207,
      "2021": 7208,
      "=\"\",": 7209,
      "benchmark": 7210,
      "tenant": 7211,
      "gi": 7212,
      "rstrip": 7213,
      "Ġ=================================================================": 7214,
      "UND": 7215,
      "RED": 7216,
      "fire": 7217,
      "ĠTable": 7218,
      "Ġenabled": 7219,
      "repository": 7220,
      "figsize": 7221,
      "hosts": 7222,
      "WI": 7223,
      "Ġpacket": 7224,
      "bat": 7225,
      "echo": 7226,
      "extensions": 7227,
      "recv": 7228,
      "getitem": 7229,
      "('./": 7230,
      "âķĮ": 7231,
      "emon": 7232,
      "Rest": 7233,
      "CLUDING": 7234,
      "nu": 7235,
      "maximum": 7236,
      "Ġcmap": 7237,
      "Ġ({": 7238,
      "Protocol": 7239,
      "ĠWeb": 7240,
      "destroy": 7241,
      "Ġanaly": 7242,
      "Ġicon": 7243,
      "Ġdeploy": 7244,
      "dk": 7245,
      "Ġiprot": 7246,
      "Ġavoid": 7247,
      "Ġprovider": 7248,
      "news": 7249,
      "Ġexpr": 7250,
      "Global": 7251,
      "Pe": 7252,
      "('[": 7253,
      "aloader": 7254,
      "wx": 7255,
      "allowed": 7256,
      "company": 7257,
      "Ġcos": 7258,
      "precated": 7259,
      "Ġworkflow": 7260,
      "follow": 7261,
      "She": 7262,
      "Ð°Ð½": 7263,
      "prepare": 7264,
      "ellow": 7265,
      "Ġdropout": 7266,
      "Ġjsonify": 7267,
      "ĠSequence": 7268,
      "rase": 7269,
      "='')": 7270,
      "Ġgate": 7271,
      "exe": 7272,
      "udit": 7273,
      "bra": 7274,
      "Ġ1024": 7275,
      "filtered": 7276,
      "parallel": 7277,
      "osition": 7278,
      "review": 7279,
      "tify": 7280,
      "Ġexamples": 7281,
      "dependent": 7282,
      "oe": 7283,
      "Ġmachine": 7284,
      "ota": 7285,
      "dataframe": 7286,
      "cryption": 7287,
      "Ġcontroller": 7288,
      "Could": 7289,
      "Ġwell": 7290,
      "deepcopy": 7291,
      "Ġaggreg": 7292,
      "until": 7293,
      "Union": 7294,
      "ĉĠ": 7295,
      "ĠRandom": 7296,
      "Ġclassi": 7297,
      "Ġsq": 7298,
      ":')": 7299,
      "Ġdummy": 7300,
      "168": 7301,
      "coef": 7302,
      "vectors": 7303,
      "see": 7304,
      "ĠDA": 7305,
      "ĠInc": 7306,
      "ĠâĶ": 7307,
      "Ġzone": 7308,
      "ĠDataFrame": 7309,
      "DAT": 7310,
      "Engine": 7311,
      "Migration": 7312,
      "Ġmag": 7313,
      "Ġrequested": 7314,
      "tb": 7315,
      "Ġlogs": 7316,
      "ĠDEFAULT": 7317,
      "Ġrepr": 7318,
      "QP": 7319,
      "Ġsensor": 7320,
      "tor": 7321,
      "dialog": 7322,
      "ĠON": 7323,
      "umbnail": 7324,
      "Ġpartition": 7325,
      "failure": 7326,
      "Param": 7327,
      "(\",": 7328,
      "prod": 7329,
      "truth": 7330,
      "workspace": 7331,
      "AF": 7332,
      "Ġwritten": 7333,
      "ierarch": 7334,
      "ĠCan": 7335,
      "Parse": 7336,
      "revision": 7337,
      "ĠAD": 7338,
      "rp": 7339,
      "unpack": 7340,
      "negative": 7341,
      "Ġselection": 7342,
      "inc": 7343,
      "cum": 7344,
      "ners": 7345,
      "yy": 7346,
      "ICT": 7347,
      "ĠRaises": 7348,
      "wav": 7349,
      "Ġmaterial": 7350,
      "bute": 7351,
      "bert": 7352,
      "Ġremaining": 7353,
      "lengths": 7354,
      "swig": 7355,
      "fft": 7356,
      "gradient": 7357,
      "ae": 7358,
      "Ġincluding": 7359,
      "lihood": 7360,
      "edu": 7361,
      "Left": 7362,
      "vest": 7363,
      "solution": 7364,
      "ĠFind": 7365,
      "Ġbins": 7366,
      "CV": 7367,
      "transforms": 7368,
      "ĠSimple": 7369,
      "Ġcallable": 7370,
      "Ġonce": 7371,
      "\")[": 7372,
      "(\"\")": 7373,
      "EE": 7374,
      "dom": 7375,
      "Ġci": 7376,
      "Ġindividual": 7377,
      "Ġgit": 7378,
      "assertAlmostEqual": 7379,
      "enticated": 7380,
      "getenv": 7381,
      "ĠCONTR": 7382,
      "iece": 7383,
      "ĠGenerate": 7384,
      "Height": 7385,
      "hem": 7386,
      "masks": 7387,
      "è¡¨": 7388,
      "ĠArguments": 7389,
      "ULAR": 7390,
      "fri": 7391,
      "INGS": 7392,
      "frac": 7393,
      "cuit": 7394,
      "ike": 7395,
      "levant": 7396,
      "Ġ'[": 7397,
      "Ġcollect": 7398,
      "structions": 7399,
      "Ġsv": 7400,
      "ĠPlease": 7401,
      "moving": 7402,
      "POSE": 7403,
      "vor": 7404,
      "ĠQuery": 7405,
      "Ġprepare": 7406,
      "velopment": 7407,
      "´ółģ": 7408,
      "ĠBE": 7409,
      "fx": 7410,
      "Ġpin": 7411,
      "POS": 7412,
      "invoke": 7413,
      "åĨ": 7414,
      "atible": 7415,
      "ĠSolution": 7416,
      "demo": 7417,
      "Package": 7418,
      "findall": 7419,
      "Ġpkg": 7420,
      "Ġpg": 7421,
      "Mapping": 7422,
      "ylim": 7423,
      "Align": 7424,
      "replicate": 7425,
      "ĠLIMIT": 7426,
      "basis": 7427,
      "pur": 7428,
      "arc": 7429,
      "Ġlinks": 7430,
      "priority": 7431,
      "ä¹": 7432,
      "subnet": 7433,
      "urations": 7434,
      "Ġswitch": 7435,
      "Day": 7436,
      "ĠOp": 7437,
      "Ġadjust": 7438,
      "=[],": 7439,
      "Ġregular": 7440,
      "CU": 7441,
      "([])": 7442,
      "SL": 7443,
      "ified": 7444,
      "Ġthose": 7445,
      "mq": 7446,
      "Ġnargs": 7447,
      "Product": 7448,
      "GG": 7449,
      "radi": 7450,
      "Ġ{:.": 7451,
      "agg": 7452,
      "specs": 7453,
      "('/')": 7454,
      "Ð·": 7455,
      "oter": 7456,
      "translation": 7457,
      "Ġserializers": 7458,
      "ĠIMP": 7459,
      "arger": 7460,
      "POINT": 7461,
      "density": 7462,
      "Ġinside": 7463,
      "Ġfiltered": 7464,
      "qt": 7465,
      "rotate": 7466,
      "trip": 7467,
      "Ġfunctools": 7468,
      "Ġvisit": 7469,
      "warnings": 7470,
      "Ġlinewidth": 7471,
      "Comple": 7472,
      "terms": 7473,
      "ĠMigration": 7474,
      "bone": 7475,
      "']):": 7476,
      "ople": 7477,
      "Ġfeat": 7478,
      "Ġqueryset": 7479,
      "tan": 7480,
      "beam": 7481,
      "prior": 7482,
      "Body": 7483,
      "Eval": 7484,
      "Items": 7485,
      "LEFT": 7486,
      "expi": 7487,
      "Ġ'\"": 7488,
      "rev": 7489,
      "rees": 7490,
      "Ġes": 7491,
      "BER": 7492,
      "Ġ---": 7493,
      "lick": 7494,
      "half": 7495,
      "Sched": 7496,
      "__))": 7497,
      "rush": 7498,
      "scheme": 7499,
      "FORMAT": 7500,
      "Abs": 7501,
      "Driver": 7502,
      "micro": 7503,
      "Ġta": 7504,
      "Ġreduce": 7505,
      "VO": 7506,
      "dium": 7507,
      "ĠMap": 7508,
      "incip": 7509,
      "Env": 7510,
      "boolean": 7511,
      "Ġvertex": 7512,
      "asy": 7513,
      "unity": 7514,
      "cached": 7515,
      "Ġuri": 7516,
      "Ġspa": 7517,
      "ĠStruct": 7518,
      "timezone": 7519,
      "Ġnecessary": 7520,
      "Ġtxt": 7521,
      "NESS": 7522,
      "pretrained": 7523,
      "Ġchecks": 7524,
      "ĠStatus": 7525,
      "illa": 7526,
      "ĠSets": 7527,
      "Vis": 7528,
      "timedelta": 7529,
      "lane": 7530,
      "clock": 7531,
      "scape": 7532,
      "Inst": 7533,
      "Alter": 7534,
      "Gra": 7535,
      "Modi": 7536,
      "getattr": 7537,
      "START": 7538,
      "href": 7539,
      "Ġcountry": 7540,
      "Ġannotations": 7541,
      "curve": 7542,
      "Vide": 7543,
      "otation": 7544,
      "getcwd": 7545,
      "rices": 7546,
      "Ġ/=": 7547,
      "amb": 7548,
      "CLI": 7549,
      "Ġfilepath": 7550,
      "YY": 7551,
      "ceed": 7552,
      "Ġrgb": 7553,
      "Ġdepend": 7554,
      "ste": 7555,
      "Member": 7556,
      "ĠGeneral": 7557,
      "past": 7558,
      "_[": 7559,
      "cpp": 7560,
      "fits": 7561,
      "cancel": 7562,
      "lio": 7563,
      "WORK": 7564,
      "Ġ{:": 7565,
      "Ġaccording": 7566,
      "Ġgeo": 7567,
      "ĠDO": 7568,
      "Ġworks": 7569,
      "ĠMain": 7570,
      "erance": 7571,
      "Ġevaluation": 7572,
      "Ġrepresenting": 7573,
      "PES": 7574,
      "ah": 7575,
      "=',": 7576,
      "Ġ\"$": 7577,
      "Ġcalls": 7578,
      "when": 7579,
      "Ġvs": 7580,
      "execution": 7581,
      "specific": 7582,
      "Validator": 7583,
      "hours": 7584,
      "Ġ\"'": 7585,
      "Ġlatest": 7586,
      "today": 7587,
      "station": 7588,
      "coin": 7589,
      "added": 7590,
      "Spe": 7591,
      "hexrays": 7592,
      "Ġcomplex": 7593,
      "lope": 7594,
      "Ġ31": 7595,
      "ĠParameter": 7596,
      "Ġrunner": 7597,
      "Mask": 7598,
      "trigger": 7599,
      "ÐµÑĢ": 7600,
      "åŃĹ": 7601,
      "chars": 7602,
      "construct": 7603,
      "ĠConvert": 7604,
      "Ġdecimal": 7605,
      "levels": 7606,
      "MN": 7607,
      "Missing": 7608,
      "ATCH": 7609,
      "Ġproper": 7610,
      "BR": 7611,
      "Ġsimp": 7612,
      "Ġrc": 7613,
      "xel": 7614,
      "atar": 7615,
      "selector": 7616,
      "Ġdelimiter": 7617,
      "IME": 7618,
      "ĠSave": 7619,
      "Bytes": 7620,
      "Exist": 7621,
      "Dim": 7622,
      "iling": 7623,
      "Ġpixels": 7624,
      "SES": 7625,
      "middleware": 7626,
      "Ġbounds": 7627,
      "CONT": 7628,
      "ĠCONF": 7629,
      "ories": 7630,
      "Ġboto": 7631,
      "ĠPrint": 7632,
      "Su": 7633,
      "ĠCor": 7634,
      "quantity": 7635,
      "WID": 7636,
      "Ġstill": 7637,
      "Constraint": 7638,
      "8618": 7639,
      "Ġsubset": 7640,
      "Ġmultip": 7641,
      "sci": 7642,
      "COUNT": 7643,
      "Game": 7644,
      "GEN": 7645,
      "Ġ512": 7646,
      "032": 7647,
      "Ġrho": 7648,
      "redis": 7649,
      "Ġ10000": 7650,
      "Ġ2017": 7651,
      "Ġconnected": 7652,
      "CD": 7653,
      "validator": 7654,
      "çī": 7655,
      "434": 7656,
      "(\"\"\"": 7657,
      "PP": 7658,
      "pdb": 7659,
      "imgs": 7660,
      "based": 7661,
      "150": 7662,
      "ĠOther": 7663,
      "artifact": 7664,
      "REQUEST": 7665,
      "åĪĨ": 7666,
      "Ġcr": 7667,
      "tau": 7668,
      "BL": 7669,
      "iterations": 7670,
      "tokenizer": 7671,
      "First": 7672,
      "bro": 7673,
      "Ġepsilon": 7674,
      "ĠĠĠĠĠĠĠĠĠĠĠĠĠĠĠĠĠĠĠĠĠĠĠĠĠĠĠĠĠĠĠĠĠĠĠĠĠĠĠĠĠĠĠĠĠĠĠĠ": 7675,
      "Ġcoordinate": 7676,
      "management": 7677,
      "############################################################################": 7678,
      "Ġmedia": 7679,
      "Instruction": 7680,
      "XY": 7681,
      "Save": 7682,
      "(\"<": 7683,
      "-{": 7684,
      "ism": 7685,
      "mitive": 7686,
      "dag": 7687,
      "Ġown": 7688,
      "Ġmass": 7689,
      "tif": 7690,
      "keyword": 7691,
      "margin": 7692,
      "Ġ27": 7693,
      "utiful": 7694,
      "ĠEnd": 7695,
      "quival": 7696,
      "IMAGE": 7697,
      "OFF": 7698,
      "CHAN": 7699,
      "\"})": 7700,
      "tm": 7701,
      "CHAR": 7702,
      "567": 7703,
      "ima": 7704,
      "Ġexact": 7705,
      "CESS": 7706,
      "ggest": 7707,
      "uator": 7708,
      "resolve": 7709,
      "ĠDist": 7710,
      "Msg": 7711,
      "charge": 7712,
      "king": 7713,
      "LEV": 7714,
      "Ġok": 7715,
      "LETE": 7716,
      "Ġgoal": 7717,
      "))))": 7718,
      "Import": 7719,
      "/')": 7720,
      "Ids": 7721,
      "Ġpprint": 7722,
      "dicate": 7723,
      "Ġcloud": 7724,
      "Ġencoded": 7725,
      "ãĤĴ": 7726,
      "Ã¤": 7727,
      "ĠWhether": 7728,
      "Abstract": 7729,
      "ç±": 7730,
      "Ġsimulation": 7731,
      "Long": 7732,
      "eros": 7733,
      "esh": 7734,
      "Ġiterations": 7735,
      "Ġinstalled": 7736,
      "Operation": 7737,
      "ganization": 7738,
      "||": 7739,
      "cod": 7740,
      "Ġcp": 7741,
      "ĠĠĠĠĠĠĠĠĠĠĠĠĠĠĠĠĠĠĠĠĊ": 7742,
      "Ġ[('": 7743,
      "ĠĠĠĠĠĠĠĠĠĠĠĠĠĠĠĠĠĠĠĠĠĠĠĠĠĠĠĠĠĠĠĠĠĠĠĠĠĠĠĠĠĠĠĠĠĠĠĠĠĠĠĠĠĠĠ": 7744,
      "ification": 7745,
      "Ġequ": 7746,
      "Ġconsole": 7747,
      "('.')": 7748,
      "criptor": 7749,
      "emit": 7750,
      "endor": 7751,
      "ĠSign": 7752,
      "Ġdue": 7753,
      "ĠCOP": 7754,
      "observation": 7755,
      "SUB": 7756,
      "cha": 7757,
      ":`~": 7758,
      "pow": 7759,
      "ĠResult": 7760,
      "sect": 7761,
      "Ġtrigger": 7762,
      "Ġpor": 7763,
      "ĠMat": 7764,
      "idxs": 7765,
      "cade": 7766,
      "Ġpot": 7767,
      "cards": 7768,
      "saved": 7769,
      "Ġwrong": 7770,
      "Ġalias": 7771,
      "Ġprobability": 7772,
      "Ġtakes": 7773,
      "Ġlogits": 7774,
      "ĠWindow": 7775,
      "Ġexpand": 7776,
      "means": 7777,
      "NING": 7778,
      "Provider": 7779,
      "Ġslot": 7780,
      "under": 7781,
      "literals": 7782,
      "^^": 7783,
      ".%": 7784,
      "hub": 7785,
      "metry": 7786,
      "builtin": 7787,
      "minator": 7788,
      "Ġfmt": 7789,
      "Ġdetermin": 7790,
      "colour": 7791,
      "Ġband": 7792,
      "chi": 7793,
      "ĠServer": 7794,
      "Success": 7795,
      "notify": 7796,
      "ĠInitialize": 7797,
      "âķĮâķĮ": 7798,
      "ATED": 7799,
      "å®ļ": 7800,
      "Details": 7801,
      "descriptor": 7802,
      "isation": 7803,
      "Ġproto": 7804,
      "Buffer": 7805,
      "Ġ'':": 7806,
      "Ġuseful": 7807,
      "orders": 7808,
      "ĠLIC": 7809,
      "Ġknown": 7810,
      "Json": 7811,
      "Ġfactory": 7812,
      "ibration": 7813,
      "gap": 7814,
      "Ġ\\\"": 7815,
      "ĠCOPY": 7816,
      "819": 7817,
      "(\".": 7818,
      "species": 7819,
      "Video": 7820,
      "velocity": 7821,
      "bum": 7822,
      "bon": 7823,
      "Ġ[{": 7824,
      "Ġdecode": 7825,
      "iteration": 7826,
      "anded": 7827,
      "hr": 7828,
      "ADD": 7829,
      "Ð°ÑĤ": 7830,
      "udio": 7831,
      "student": 7832,
      "Ġcalling": 7833,
      "yles": 7834,
      "rupt": 7835,
      "prompt": 7836,
      "Stats": 7837,
      "pw": 7838,
      "è¾": 7839,
      "sock": 7840,
      "grams": 7841,
      "Hello": 7842,
      "()])": 7843,
      "xtures": 7844,
      "existing": 7845,
      "Ġprotein": 7846,
      "ÐµÑĤ": 7847,
      "dynamic": 7848,
      "Ġca": 7849,
      "adow": 7850,
      "MC": 7851,
      "sibility": 7852,
      "allenge": 7853,
      "utter": 7854,
      "ĠMethod": 7855,
      "ny": 7856,
      "Ġdy": 7857,
      "setdefault": 7858,
      "rack": 7859,
      "virtual": 7860,
      "Ġbuilder": 7861,
      "Ġsuccessfully": 7862,
      "Sur": 7863,
      "visual": 7864,
      "BID": 7865,
      "Ġbits": 7866,
      "accounts": 7867,
      "Ġdirectly": 7868,
      "Points": 7869,
      "AST": 7870,
      "ffi": 7871,
      "changes": 7872,
      "izing": 7873,
      "Utils": 7874,
      "ĠDATA": 7875,
      "CUR": 7876,
      "xlim": 7877,
      "Ġhex": 7878,
      "nf": 7879,
      "sdk": 7880,
      "YPE": 7881,
      "pv": 7882,
      "/\",": 7883,
      "Ġpid": 7884,
      "generated": 7885,
      "hit": 7886,
      "ĠFIT": 7887,
      "Ġ''.": 7888,
      "digits": 7889,
      "circle": 7890,
      "bank": 7891,
      "åĩº": 7892,
      "Ġshare": 7893,
      "ĠModule": 7894,
      "Ġ([": 7895,
      "formatter": 7896,
      "trols": 7897,
      "ĉĉĉĉĉĉĉĉ": 7898,
      "pace": 7899,
      "adr": 7900,
      "Ġamp": 7901,
      "windows": 7902,
      "Ġsources": 7903,
      "éĻ": 7904,
      "agents": 7905,
      "Ho": 7906,
      "ris": 7907,
      "Ġpose": 7908,
      "minimum": 7909,
      "cleaned": 7910,
      "Ġsche": 7911,
      "MESS": 7912,
      "ducer": 7913,
      "Definition": 7914,
      "igen": 7915,
      "ĠOper": 7916,
      "FIEL": 7917,
      "ano": 7918,
      "Draw": 7919,
      "markdown": 7920,
      "Ġdensity": 7921,
      "escape": 7922,
      "Ġ####": 7923,
      "Ġmight": 7924,
      "atoms": 7925,
      "Offset": 7926,
      "ĠLICENSE": 7927,
      "ä¼": 7928,
      "COMM": 7929,
      "();": 7930,
      "ĠWrite": 7931,
      "Show": 7932,
      "anchor": 7933,
      "crypted": 7934,
      "æŃ": 7935,
      "Ġ_(\"": 7936,
      "mouse": 7937,
      "capacity": 7938,
      "ores": 7939,
      "Remove": 7940,
      "roi": 7941,
      "Enabled": 7942,
      "ĠCalculate": 7943,
      "Right": 7944,
      "ffici": 7945,
      "Ġfd": 7946,
      "Ġkw": 7947,
      "Ġapplied": 7948,
      "ĠFound": 7949,
      "positive": 7950,
      "Ġstrategy": 7951,
      "ĠĠĠĠĠĠĠĠĠĠĠĠĠĠĠĠĠĠĠĠĠĠĠĠĠĠĠĠĠĠĠĠĠĠĠĠĠĠĠĠĠĠĠĠĠĠĠĠĠ": 7952,
      "Ġcoeffici": 7953,
      "ĠEnum": 7954,
      "ĠÐ½": 7955,
      "10000": 7956,
      "Ġscene": 7957,
      "mutation": 7958,
      "conti": 7959,
      "à¸": 7960,
      "Soup": 7961,
      "BACK": 7962,
      "Ġsampling": 7963,
      "Ġfold": 7964,
      "chart": 7965,
      "ĠMER": 7966,
      "LIED": 7967,
      "BooleanField": 7968,
      "Ġjo": 7969,
      "Ġdp": 7970,
      "pag": 7971,
      "Operator": 7972,
      "LP": 7973,
      "resolution": 7974,
      "Ð¾Ð»": 7975,
      "assets": 7976,
      "ĠPUR": 7977,
      "Ġretrieve": 7978,
      "ĠMin": 7979,
      "Ġclassifier": 7980,
      "Ġnone": 7981,
      "ĠAss": 7982,
      "Ġinspect": 7983,
      "ised": 7984,
      "zation": 7985,
      "acle": 7986,
      "åľ¨": 7987,
      "versed": 7988,
      "epsilon": 7989,
      "ament": 7990,
      "indexes": 7991,
      "Ġsurface": 7992,
      "(%": 7993,
      "lict": 7994,
      "general": 7995,
      "ĠĠĠĠĠĠĠĠĠĠĠĠĠĠĠĠĠĠĠĠĠĠĠĠĠĠĠĠĠĠĠĠĠĠĠĠĠĠĠĠĠĠĠĠĠĠĠĠĠĠ": 7996,
      "bsite": 7997,
      "hest": 7998,
      "Ġuid": 7999,
      "Domain": 8000,
      "Handle": 8001,
      "customer": 8002,
      "ĠPIL": 8003,
      "rive": 8004,
      "heads": 8005,
      "heat": 8006,
      "trl": 8007,
      ">>>": 8008,
      "!=": 8009,
      "matmul": 8010,
      "MainWindow": 8011,
      "!\"": 8012,
      "åĲį": 8013,
      "Begin": 8014,
      "SG": 8015,
      "[...,": 8016,
      "Ġer": 8017,
      "\"]))": 8018,
      "suite": 8019,
      "ider": 8020,
      "NET": 8021,
      "Ġwave": 8022,
      "Root": 8023,
      "ĠBUT": 8024,
      "cture": 8025,
      "Ġ()": 8026,
      "Ġti": 8027,
      "rypto": 8028,
      "Ġsender": 8029,
      "CHANT": 8030,
      "plots": 8031,
      "Flag": 8032,
      "ĠXXXX": 8033,
      "adjust": 8034,
      "_{}": 8035,
      "detect": 8036,
      "Ġndarray": 8037,
      "lc": 8038,
      "Ġ99": 8039,
      "outfile": 8040,
      "gain": 8041,
      "zure": 8042,
      "onom": 8043,
      "tight": 8044,
      "Ġactor": 8045,
      "Ġvectors": 8046,
      "Ġcreating": 8047,
      "NotFoundError": 8048,
      "'m": 8049,
      "house": 8050,
      "requirements": 8051,
      "Ġsync": 8052,
      "Ġtables": 8053,
      "Ġepisode": 8054,
      "]\",": 8055,
      "Ġcast": 8056,
      "ĠVi": 8057,
      "å¹": 8058,
      "solver": 8059,
      "estyle": 8060,
      "detection": 8061,
      "oute": 8062,
      "509": 8063,
      "Ġfh": 8064,
      "ados": 8065,
      "Ġcover": 8066,
      "licies": 8067,
      "ĠSim": 8068,
      "coming": 8069,
      "Ġjoint": 8070,
      "ĉĉĉĊ": 8071,
      "batches": 8072,
      "ç±»": 8073,
      "EW": 8074,
      "ares": 8075,
      "cepted": 8076,
      "GRO": 8077,
      "ndim": 8078,
      "ordered": 8079,
      "phab": 8080,
      "ĠRO": 8081,
      "Region": 8082,
      "'d": 8083,
      "Ġblack": 8084,
      "Ġcond": 8085,
      "formance": 8086,
      "ĠBY": 8087,
      "<<": 8088,
      "OD": 8089,
      "Ġcells": 8090,
      "etrie": 8091,
      "degree": 8092,
      "oauth": 8093,
      "Ġmade": 8094,
      "It": 8095,
      "ĠSession": 8096,
      "sat": 8097,
      "[@": 8098,
      "Ġsquare": 8099,
      "Ġdeal": 8100,
      "shapes": 8101,
      "Ġstatistics": 8102,
      "hou": 8103,
      "ółĢ": 8104,
      "arrow": 8105,
      "LER": 8106,
      "neighbors": 8107,
      "Proxy": 8108,
      "224": 8109,
      "Pub": 8110,
      "ĠPURPOSE": 8111,
      "wi": 8112,
      "Ġhit": 8113,
      "sf": 8114,
      "Ġnamed": 8115,
      "ĠVAL": 8116,
      "groupby": 8117,
      "segments": 8118,
      "Ġlab": 8119,
      "Ġbackup": 8120,
      "Ġfc": 8121,
      "ceil": 8122,
      "DIS": 8123,
      "heel": 8124,
      "regions": 8125,
      "{:": 8126,
      "æ³": 8127,
      "ÃŃ": 8128,
      "ina": 8129,
      "classification": 8130,
      "veloper": 8131,
      "interpol": 8132,
      "FS": 8133,
      "live": 8134,
      "sound": 8135,
      "Many": 8136,
      "contour": 8137,
      "Ð¾ÑĢ": 8138,
      "Common": 8139,
      "Ġunknown": 8140,
      "_\"": 8141,
      "uel": 8142,
      "Ġthree": 8143,
      "ĠHT": 8144,
      "Identifier": 8145,
      "wind": 8146,
      "(\"{}": 8147,
      "functional": 8148,
      "Ġsqlite": 8149,
      "Sm": 8150,
      "VM": 8151,
      "Ġjobs": 8152,
      "Ġrepository": 8153,
      "\"\",": 8154,
      "Ġautomatically": 8155,
      "Ġem": 8156,
      "CHANTABILITY": 8157,
      "Ġdic": 8158,
      "Volume": 8159,
      "Ġdetermine": 8160,
      "Ġstatement": 8161,
      "oney": 8162,
      "ĠÐº": 8163,
      "Descriptor": 8164,
      "Bad": 8165,
      "Ġhard": 8166,
      "feats": 8167,
      "ĠAuthor": 8168,
      "CB": 8169,
      "ĠNetwork": 8170,
      "mysql": 8171,
      ">`": 8172,
      "indic": 8173,
      "hp": 8174,
      "ĠPol": 8175,
      "uf": 8176,
      "Ġbind": 8177,
      "Ġ42": 8178,
      "Assign": 8179,
      "itation": 8180,
      "lyph": 8181,
      "Ġreading": 8182,
      "ĠPARTIC": 8183,
      "==\"": 8184,
      "<=": 8185,
      "large": 8186,
      "alty": 8187,
      "Nodes": 8188,
      "\"]]": 8189,
      "ĠSearch": 8190,
      "897": 8191,
      "clicked": 8192,
      "ĠTemplate": 8193,
      "Basic": 8194,
      "Ġquanti": 8195,
      "Func": 8196,
      "Ob": 8197,
      "serializers": 8198,
      "Ġcreation": 8199,
      "é¡": 8200,
      "statement": 8201,
      "åĪ°": 8202,
      "blog": 8203,
      "Ġpdf": 8204,
      "almost": 8205,
      "Fail": 8206,
      "pear": 8207,
      "Ġsetattr": 8208,
      "Bound": 8209,
      "park": 8210,
      "weep": 8211,
      "notes": 8212,
      "iterator": 8213,
      "AU": 8214,
      "reet": 8215,
      "ko": 8216,
      "Ġencode": 8217,
      "Note": 8218,
      "Ġconcat": 8219,
      "atype": 8220,
      "market": 8221,
      "atings": 8222,
      "=('": 8223,
      "Ð¹": 8224,
      "stand": 8225,
      "addle": 8226,
      "Ġabc": 8227,
      "ĠPARTICULAR": 8228,
      "utifulSoup": 8229,
      "uit": 8230,
      "sider": 8231,
      "irt": 8232,
      "Ġmerged": 8233,
      "Ġbus": 8234,
      "Ġobservation": 8235,
      "fac": 8236,
      "algorithm": 8237,
      "numeric": 8238,
      "Ġscheduler": 8239,
      "Ġcycle": 8240,
      "tit": 8241,
      "ĠFilter": 8242,
      "uz": 8243,
      "ung": 8244,
      "Ġ26": 8245,
      "Div": 8246,
      "classi": 8247,
      "Execution": 8248,
      "INPUT": 8249,
      "Ġpag": 8250,
      "ĠAb": 8251,
      "gc": 8252,
      "86180": 8253,
      "CCESS": 8254,
      "ĠNOTE": 8255,
      "Lock": 8256,
      "Ġblob": 8257,
      "tracts": 8258,
      "rnn": 8259,
      "clf": 8260,
      "servers": 8261,
      "litude": 8262,
      "Score": 8263,
      "Ġ{{": 8264,
      "ĠSup": 8265,
      "ATTR": 8266,
      "2016": 8267,
      "tip": 8268,
      "``,": 8269,
      "ĠGPIO": 8270,
      "BY": 8271,
      "ç¬": 8272,
      "Ġplaced": 8273,
      "Ġresolution": 8274,
      "Ġscra": 8275,
      "Ġtools": 8276,
      "Ġcnt": 8277,
      "vehicle": 8278,
      "DOWN": 8279,
      "azure": 8280,
      "Ġattach": 8281,
      "Ġscalar": 8282,
      "ðŁı´ółģ": 8283,
      "FP": 8284,
      "ĠGoogle": 8285,
      "ONT": 8286,
      "slots": 8287,
      "Cannot": 8288,
      "Ġinp": 8289,
      "Sn": 8290,
      "Ġren": 8291,
      "randn": 8292,
      "Ġfoo": 8293,
      "meth": 8294,
      "Ġvertices": 8295,
      "Ġ'*": 8296,
      "Expected": 8297,
      "ĠBlock": 8298,
      "STM": 8299,
      "iteritems": 8300,
      "Topic": 8301,
      "NGTH": 8302,
      "ora": 8303,
      "Ġaux": 8304,
      "TRY": 8305,
      "qs": 8306,
      "ystems": 8307,
      "__(*": 8308,
      "åĽŀ": 8309,
      "editor": 8310,
      "Ġnormalized": 8311,
      "WIDTH": 8312,
      "payment": 8313,
      "Ġtkinter": 8314,
      "ads": 8315,
      "Ġvec": 8316,
      "Ġignored": 8317,
      "ĠMERCHANTABILITY": 8318,
      ",(": 8319,
      "bold": 8320,
      "Ñħ": 8321,
      "ĠBea": 8322,
      "Ġpipe": 8323,
      "itect": 8324,
      "ĠOne": 8325,
      "')))": 8326,
      "olved": 8327,
      "weets": 8328,
      "las": 8329,
      "Ġhapp": 8330,
      "SECRE": 8331,
      "Usage": 8332,
      "{})": 8333,
      "Backend": 8334,
      "Conver": 8335,
      "ages": 8336,
      "ĠRel": 8337,
      "notification": 8338,
      "chrom": 8339,
      "OUTPUT": 8340,
      "}_{": 8341,
      "GT": 8342,
      "Distri": 8343,
      "nom": 8344,
      "Ġorg": 8345,
      ":/": 8346,
      "equ": 8347,
      "Ġloader": 8348,
      "ables": 8349,
      "Util": 8350,
      "=\"/": 8351,
      "combo": 8352,
      "NEC": 8353,
      "motion": 8354,
      "tmpdir": 8355,
      "gateway": 8356,
      "piece": 8357,
      "('{}": 8358,
      "ĠCH": 8359,
      "Ġruns": 8360,
      "è¦": 8361,
      "vey": 8362,
      "dependencies": 8363,
      "otype": 8364,
      "History": 8365,
      "Fi": 8366,
      "estimator": 8367,
      "(('": 8368,
      "raries": 8369,
      "marks": 8370,
      "Wait": 8371,
      "Ġaround": 8372,
      "Next": 8373,
      "ĠBack": 8374,
      "ĠLIMITED": 8375,
      "gp": 8376,
      "enium": 8377,
      "Ġhalf": 8378,
      "../../": 8379,
      "VALUE": 8380,
      "har": 8381,
      "spin": 8382,
      "impl": 8383,
      "Cloud": 8384,
      "Ġdevices": 8385,
      "Ġlarge": 8386,
      "Ġcharge": 8387,
      "ade": 8388,
      "Ġet": 8389,
      "eye": 8390,
      "ĠPi": 8391,
      "Ġboundary": 8392,
      "LENGTH": 8393,
      "æĶ": 8394,
      "lazy": 8395,
      "which": 8396,
      "operations": 8397,
      "PRESS": 8398,
      "+',": 8399,
      "Ġ35": 8400,
      "Ġss": 8401,
      "deleted": 8402,
      "LEVEL": 8403,
      "Empty": 8404,
      "ç§": 8405,
      "ĠĠĠĠĠĠĊ": 8406,
      "Ġops": 8407,
      "RESS": 8408,
      "RAY": 8409,
      "prime": 8410,
      "drive": 8411,
      "ferred": 8412,
      "ãĤĭ": 8413,
      "gas": 8414,
      "TIONS": 8415,
      "sigmoid": 8416,
      "Close": 8417,
      "Ġmargin": 8418,
      "]',": 8419,
      "è½": 8420,
      "')],": 8421,
      "Ġdetect": 8422,
      "Ann": 8423,
      "uplicates": 8424,
      "Ġrv": 8425,
      "za": 8426,
      "Ġct": 8427,
      "more": 8428,
      "SERVER": 8429,
      "|'\\": 8430,
      "recur": 8431,
      "æĮ": 8432,
      "peer": 8433,
      "Ġ^": 8434,
      "ĠFLAGS": 8435,
      "Ġtp": 8436,
      "lices": 8437,
      "Ġbetter": 8438,
      "HTML": 8439,
      "Ã§Ã£o": 8440,
      "bine": 8441,
      "irth": 8442,
      "Ġsomething": 8443,
      "Ġll": 8444,
      "Ġexpi": 8445,
      "Ġneighbor": 8446,
      "runs": 8447,
      "#----------------------------------------------------------------": 8448,
      "mpl": 8449,
      "Arg": 8450,
      "ĠChange": 8451,
      "tcp": 8452,
      "chdir": 8453,
      "Ġdiv": 8454,
      "ierarchy": 8455,
      "}),": 8456,
      "artist": 8457,
      "BatchNorm": 8458,
      "mf": 8459,
      "ulse": 8460,
      "'}),": 8461,
      "Ġstrides": 8462,
      "cmap": 8463,
      "setLevel": 8464,
      "Ġcopies": 8465,
      "illi": 8466,
      "agger": 8467,
      "FFFF": 8468,
      "Ġbalance": 8469,
      "Ġblue": 8470,
      "Ġmonitor": 8471,
      "Ġdash": 8472,
      "uber": 8473,
      "IGN": 8474,
      "å·": 8475,
      "leaf": 8476,
      "Ġpretty": 8477,
      "limits": 8478,
      "nav": 8479,
      "gether": 8480,
      "variant": 8481,
      "ç½®": 8482,
      "ĠNULL": 8483,
      "Register": 8484,
      "UES": 8485,
      "incipal": 8486,
      "])))": 8487,
      "QtGui": 8488,
      "Ġcu": 8489,
      "spark": 8490,
      "Ġground": 8491,
      "perf": 8492,
      "Signal": 8493,
      "Dense": 8494,
      "backends": 8495,
      "Ġmem": 8496,
      "Raw": 8497,
      "gence": 8498,
      "Ġfailure": 8499,
      "water": 8500,
      "dataclass": 8501,
      "chr": 8502,
      "between": 8503,
      "tinuous": 8504,
      "presentation": 8505,
      "Ġsafe": 8506,
      "Icon": 8507,
      "UTE": 8508,
      "Transaction": 8509,
      "bosity": 8510,
      "celer": 8511,
      "letter": 8512,
      "pixels": 8513,
      "livery": 8514,
      "achine": 8515,
      "outh": 8516,
      "ĠIMPLIED": 8517,
      "Center": 8518,
      "hdf": 8519,
      "sequences": 8520,
      "verb": 8521,
      "guid": 8522,
      "Ġcpu": 8523,
      "Ġactivity": 8524,
      "ulary": 8525,
      "Ġassume": 8526,
      "refs": 8527,
      "ĠDep": 8528,
      "Ġ':": 8529,
      "Extra": 8530,
      "Card": 8531,
      "SECRET": 8532,
      "agraph": 8533,
      "ĠIs": 8534,
      "aterial": 8535,
      "Ġfinished": 8536,
      "semble": 8537,
      "compress": 8538,
      "dit": 8539,
      "geom": 8540,
      "runc": 8541,
      "centi": 8542,
      "Ġcourse": 8543,
      "Ġidentity": 8544,
      "Ġ\"/\"": 8545,
      "stone": 8546,
      "ĠDelete": 8547,
      "Timeout": 8548,
      "ĠFirst": 8549,
      "ĠPack": 8550,
      "corpus": 8551,
      "Ġservices": 8552,
      "MAGES": 8553,
      "Single": 8554,
      "orientation": 8555,
      "alert": 8556,
      "KET": 8557,
      "formats": 8558,
      "visor": 8559,
      "traj": 8560,
      ",:]": 8561,
      "orph": 8562,
      "ĠThese": 8563,
      "Cir": 8564,
      "Environment": 8565,
      "Len": 8566,
      "disco": 8567,
      "Const": 8568,
      "Exit": 8569,
      "Ġ180": 8570,
      "ĠThere": 8571,
      "Pattern": 8572,
      "Ġws": 8573,
      "Light": 8574,
      "^{": 8575,
      "Hash": 8576,
      "mx": 8577,
      "uk": 8578,
      "conditions": 8579,
      "ENV": 8580,
      "EVENT": 8581,
      "ç®": 8582,
      "AutoField": 8583,
      "resnet": 8584,
      "Ġspan": 8585,
      "Ġsecurity": 8586,
      "pth": 8587,
      "nec": 8588,
      "NOWARN": 8589,
      "Non": 8590,
      "plain": 8591,
      "inja": 8592,
      "shard": 8593,
      "Ġpriority": 8594,
      "Ġâ": 8595,
      "linux": 8596,
      "MESSAGE": 8597,
      "ĠCOPYRIGHT": 8598,
      "ancy": 8599,
      "ARD": 8600,
      "ĠDevice": 8601,
      "Runner": 8602,
      "ONG": 8603,
      "Ġdouble": 8604,
      "tropy": 8605,
      "rich": 8606,
      ">\")": 8607,
      "çĤ": 8608,
      "Ġapprox": 8609,
      "manifest": 8610,
      "finished": 8611,
      "spatial": 8612,
      "pending": 8613,
      "Ġvals": 8614,
      "DL": 8615,
      "native": 8616,
      "Ġtax": 8617,
      "queryset": 8618,
      "Tools": 8619,
      "merged": 8620,
      "rol": 8621,
      "Ġflash": 8622,
      "Ġcompleted": 8623,
      "gorithms": 8624,
      "Ap": 8625,
      "sentences": 8626,
      "okies": 8627,
      "Ġworkspace": 8628,
      "encoded": 8629,
      "predicted": 8630,
      "åŃĺ": 8631,
      "Panel": 8632,
      "];": 8633,
      "Ġê": 8634,
      "othing": 8635,
      "Ġdescri": 8636,
      "Ġlosses": 8637,
      "seek": 8638,
      "Ġsetuptools": 8639,
      "viation": 8640,
      "inux": 8641,
      "presen": 8642,
      "Ġstrip": 8643,
      "RU": 8644,
      "Fixed": 8645,
      "Sec": 8646,
      "manual": 8647,
      "\")),": 8648,
      "Ġcs": 8649,
      "Ġcategories": 8650,
      "Ġtokenizer": 8651,
      "TYPES": 8652,
      "Ġhashlib": 8653,
      "Gate": 8654,
      "()['": 8655,
      "Accept": 8656,
      "Ġcurve": 8657,
      "closed": 8658,
      "Segment": 8659,
      "Memory": 8660,
      "Ġmet": 8661,
      "Ġindi": 8662,
      "cope": 8663,
      "('#": 8664,
      "ãĥ³": 8665,
      "isinstance": 8666,
      "ABASE": 8667,
      "riteria": 8668,
      "ĠEach": 8669,
      "FileName": 8670,
      "scaling": 8671,
      "ółģ¿": 8672,
      "loading": 8673,
      "Ġten": 8674,
      "ĠFloat": 8675,
      "ĠDescription": 8676,
      "ĠFITNESS": 8677,
      "pay": 8678,
      "Ġls": 8679,
      "CY": 8680,
      "ln": 8681,
      "Ġsparse": 8682,
      "ĠTag": 8683,
      "boundary": 8684,
      "ĠBeautifulSoup": 8685,
      "=\"<": 8686,
      "Ġmakes": 8687,
      "Ġarticle": 8688,
      "234": 8689,
      "sics": 8690,
      "attack": 8691,
      "ortion": 8692,
      "dtuple": 8693,
      "RT": 8694,
      "ĠAction": 8695,
      "inity": 8696,
      "Ġ=>": 8697,
      "ely": 8698,
      "maker": 8699,
      "that": 8700,
      "ĠBlue": 8701,
      "Fil": 8702,
      "NULL": 8703,
      "hing": 8704,
      "***": 8705,
      "Ġtransport": 8706,
      "LOGGER": 8707,
      "ever": 8708,
      "ĠMon": 8709,
      "masked": 8710,
      "ĠÐ´": 8711,
      "Make": 8712,
      "fw": 8713,
      "ctrl": 8714,
      "Ġmen": 8715,
      "gnitude": 8716,
      "questions": 8717,
      "java": 8718,
      "ĠBe": 8719,
      "chunks": 8720,
      "Rece": 8721,
      "DEX": 8722,
      "validators": 8723,
      "Changed": 8724,
      "Ġmut": 8725,
      "Conf": 8726,
      "Ġgeneral": 8727,
      "Active": 8728,
      "CN": 8729,
      "quit": 8730,
      "Sets": 8731,
      "Factor": 8732,
      "attery": 8733,
      "Ġchat": 8734,
      "clusive": 8735,
      "Price": 8736,
      "trunc": 8737,
      "Ġ################": 8738,
      "Ġfg": 8739,
      "buy": 8740,
      "ĠInteger": 8741,
      "Ġlocations": 8742,
      "velength": 8743,
      "ORM": 8744,
      "Ġoverwrite": 8745,
      "ĠCloud": 8746,
      "Ġur": 8747,
      "Ġstock": 8748,
      "WH": 8749,
      "sampler": 8750,
      "REF": 8751,
      "Ġloading": 8752,
      "SCH": 8753,
      "Ġparsing": 8754,
      "Ġmail": 8755,
      "ĠHTML": 8756,
      "ĠHel": 8757,
      "scenario": 8758,
      "versal": 8759,
      "SError": 8760,
      "Ġpush": 8761,
      "angular": 8762,
      ":].": 8763,
      "AMPLE": 8764,
      "population": 8765,
      "Ġupdates": 8766,
      "Ġabstract": 8767,
      "Ġresponses": 8768,
      "psi": 8769,
      "Ġtimer": 8770,
      "imread": 8771,
      "Ġrefresh": 8772,
      "è´": 8773,
      "cks": 8774,
      "),(": 8775,
      "COMP": 8776,
      "ĠColor": 8777,
      "fm": 8778,
      "ĠEVENT": 8779,
      "rst": 8780,
      "ranges": 8781,
      "Sta": 8782,
      "Ġ34": 8783,
      "ĠAttributes": 8784,
      "moji": 8785,
      "2015": 8786,
      "Ġfilenames": 8787,
      "QSize": 8788,
      "Ġhold": 8789,
      "Ġadv": 8790,
      "İ·": 8791,
      "('')": 8792,
      "AlterField": 8793,
      "Ġintegr": 8794,
      "ills": 8795,
      "prog": 8796,
      "eth": 8797,
      "otes": 8798,
      "sky": 8799,
      "receive": 8800,
      "Ġcmds": 8801,
      "PM": 8802,
      "Ġ\"\":": 8803,
      "ĠÐ¸": 8804,
      "Ġnested": 8805,
      "AddField": 8806,
      "lobs": 8807,
      "Ġsupp": 8808,
      "gal": 8809,
      "ä¸ĭ": 8810,
      "bour": 8811,
      "ðŁĳ": 8812,
      "Ġpp": 8813,
      "scroll": 8814,
      "normalized": 8815,
      "Ġtar": 8816,
      "simulation": 8817,
      "LIN": 8818,
      "identi": 8819,
      "Ġsequences": 8820,
      "statistics": 8821,
      "responses": 8822,
      "Ġpages": 8823,
      "Ġmix": 8824,
      "Ġdifference": 8825,
      "PREFIX": 8826,
      "Ġconverted": 8827,
      "WARNING": 8828,
      "$$": 8829,
      "hw": 8830,
      "Ġnu": 8831,
      "Ġir": 8832,
      "DIRECT": 8833,
      "swap": 8834,
      "posal": 8835,
      "Ġthreads": 8836,
      "CREATE": 8837,
      "vr": 8838,
      "ĠUN": 8839,
      "Ġkeywords": 8840,
      "Cy": 8841,
      "nm": 8842,
      "ua": 8843,
      "TRAIN": 8844,
      "hard": 8845,
      "continue": 8846,
      "Ġcriterion": 8847,
      "Ġquote": 8848,
      "SERT": 8849,
      "Metric": 8850,
      "EY": 8851,
      "PA": 8852,
      "ĠJson": 8853,
      "ECK": 8854,
      "every": 8855,
      "sure": 8856,
      "constraints": 8857,
      "Login": 8858,
      "sz": 8859,
      "åī": 8860,
      "sqlite": 8861,
      "Move": 8862,
      "RUN": 8863,
      "Ġsoft": 8864,
      "posed": 8865,
      "\"/": 8866,
      "Mod": 8867,
      "Ġ204": 8868,
      "detector": 8869,
      "Ġ#:": 8870,
      "far": 8871,
      "smooth": 8872,
      "Ġwarning": 8873,
      "5357": 8874,
      "ible": 8875,
      "define": 8876,
      "six": 8877,
      "compat": 8878,
      "Fields": 8879,
      "sembly": 8880,
      "rappe": 8881,
      "Limit": 8882,
      "ĠPass": 8883,
      "priate": 8884,
      "retrie": 8885,
      "cipient": 8886,
      "inx": 8887,
      "Ġanchor": 8888,
      "Ġstarted": 8889,
      "ĠParse": 8890,
      "Ġletter": 8891,
      "CreateModel": 8892,
      "vc": 8893,
      "recipe": 8894,
      "250": 8895,
      "Permission": 8896,
      "Ġmatched": 8897,
      "ĠVector": 8898,
      "ailab": 8899,
      "enticate": 8900,
      "Ġseparate": 8901,
      "Ġgeometry": 8902,
      "bundle": 8903,
      "launch": 8904,
      "apt": 8905,
      "åĪĹ": 8906,
      "Send": 8907,
      "Ġpdb": 8908,
      "8614": 8909,
      "Bit": 8910,
      "players": 8911,
      "Ġroll": 8912,
      "ickness": 8913,
      "central": 8914,
      "Ġcity": 8915,
      "ĠGNU": 8916,
      "Expr": 8917,
      "ynomial": 8918,
      "Ġassigned": 8919,
      "keywords": 8920,
      "ĠBu": 8921,
      "MD": 8922,
      "aug": 8923,
      "CHECK": 8924,
      "åı¯": 8925,
      "design": 8926,
      "dns": 8927,
      "restore": 8928,
      "ighest": 8929,
      "ggle": 8930,
      "Ġadding": 8931,
      "Attributes": 8932,
      "Split": 8933,
      "assignment": 8934,
      "MAR": 8935,
      "Find": 8936,
      "]{": 8937,
      "Seq": 8938,
      "]\")": 8939,
      "ABC": 8940,
      "IVE": 8941,
      "gold": 8942,
      "Ġxs": 8943,
      "bsocket": 8944,
      "SK": 8945,
      "Ġcapture": 8946,
      "??": 8947,
      "ĠDocument": 8948,
      "[:,:,": 8949,
      "Ġactually": 8950,
      "XML": 8951,
      "lam": 8952,
      "cons": 8953,
      "ific": 8954,
      "trial": 8955,
      "ravel": 8956,
      "']}": 8957,
      "INST": 8958,
      "SPE": 8959,
      "é¢": 8960,
      "='/": 8961,
      "neighbor": 8962,
      "Analy": 8963,
      "mega": 8964,
      "LAB": 8965,
      "sme": 8966,
      "Ġsolver": 8967,
      "Namespace": 8968,
      "dimensions": 8969,
      "fasta": 8970,
      "connector": 8971,
      "DELETE": 8972,
      "~~~~~~~~~~~~~~~~": 8973,
      "Ġclassification": 8974,
      "æĢ": 8975,
      "ï¼ī": 8976,
      "ragma": 8977,
      "Ġocc": 8978,
      "blems": 8979,
      "ãħ": 8980,
      "\"\"\",": 8981,
      "ĠâĢ": 8982,
      "minutes": 8983,
      "Ġvelocity": 8984,
      "ĠCurrent": 8985,
      "SW": 8986,
      "sections": 8987,
      "yml": 8988,
      "alignment": 8989,
      "177": 8990,
      "Http": 8991,
      "]\\": 8992,
      "ban": 8993,
      "ĠInst": 8994,
      "eled": 8995,
      "Ð¾Ð´": 8996,
      "Ġlistener": 8997,
      "COM": 8998,
      "litext": 8999,
      "Ġredis": 9000,
      "cont": 9001,
      "mongo": 9002,
      "ITS": 9003,
      "rac": 9004,
      "lus": 9005,
      "ĠEle": 9006,
      "BS": 9007,
      "Ġradi": 9008,
      "Ġcorrectly": 9009,
      "['_": 9010,
      "Counter": 9011,
      "++++++++": 9012,
      "ned": 9013,
      "Ġ;": 9014,
      "Ġsin": 9015,
      "pandas": 9016,
      "ĠStop": 9017,
      "clients": 9018,
      "Edge": 9019,
      "cipant": 9020,
      "Ġdid": 9021,
      "completed": 9022,
      "confirm": 9023,
      "[::-": 9024,
      "Tab": 9025,
      "mse": 9026,
      "Ġdetection": 9027,
      "Ġ-->": 9028,
      "ï¼Ī": 9029,
      "Ġvars": 9030,
      "latent": 9031,
      "rouped": 9032,
      "increment": 9033,
      "Ġprompt": 9034,
      "åŀ": 9035,
      "cores": 9036,
      "Ġpm": 9037,
      "Ġentities": 9038,
      "ĠBatch": 9039,
      "Ġallows": 9040,
      "Ġchoose": 9041,
      "FL": 9042,
      "Ġsmooth": 9043,
      "ĠSP": 9044,
      "exact": 9045,
      "ipv": 9046,
      "Ġtransfer": 9047,
      "Ġdetail": 9048,
      "199": 9049,
      "Ġrestri": 9050,
      "Ġdocker": 9051,
      "ãĢģ": 9052,
      "given": 9053,
      "additional": 9054,
      "Ġnothing": 9055,
      "integr": 9056,
      "Ġrepe": 9057,
      "grpc": 9058,
      "å¯¹": 9059,
      "IES": 9060,
      "Ġplaces": 9061,
      "']=": 9062,
      "Ġformatted": 9063,
      "IAL": 9064,
      "Ġ2016": 9065,
      "information": 9066,
      "DESCRIP": 9067,
      "distributions": 9068,
      "ĠDefine": 9069,
      "deps": 9070,
      "interfaces": 9071,
      "lstm": 9072,
      "pitch": 9073,
      "Ġage": 9074,
      "Ġlearn": 9075,
      "è¯·": 9076,
      "])]": 9077,
      "scra": 9078,
      "ĠBinary": 9079,
      "Ġserialized": 9080,
      "udi": 9081,
      "resid": 9082,
      "Redirect": 9083,
      "onical": 9084,
      "union": 9085,
      "Ġbasis": 9086,
      "Ġcomputed": 9087,
      "ĠBoo": 9088,
      "172": 9089,
      "certificate": 9090,
      "Ġdynamic": 9091,
      "([(": 9092,
      "BIDIR": 9093,
      "Ġruntime": 9094,
      "Ang": 9095,
      "')(": 9096,
      "ĠSample": 9097,
      "Ġmol": 9098,
      "tifications": 9099,
      ".\".": 9100,
      "Ġmm": 9101,
      "([-": 9102,
      "linked": 9103,
      "Car": 9104,
      "ĠApi": 9105,
      "Ġtimezone": 9106,
      "ÑĢÐ°Ð": 9107,
      "$\\": 9108,
      "@@": 9109,
      "fraction": 9110,
      "nel": 9111,
      "queries": 9112,
      "Ġ36": 9113,
      "125": 9114,
      "cuts": 9115,
      "]')": 9116,
      "Ġsheet": 9117,
      "Ġsi": 9118,
      "éĹ´": 9119,
      "xls": 9120,
      "|\\": 9121,
      "ä¾": 9122,
      "ighbour": 9123,
      "Structure": 9124,
      "220": 9125,
      "RC": 9126,
      "ĠEN": 9127,
      "ĠExamples": 9128,
      "ĠTop": 9129,
      "ĠMark": 9130,
      "ENCE": 9131,
      "Ġagainst": 9132,
      "Ġgreater": 9133,
      "URI": 9134,
      "Middleware": 9135,
      "submission": 9136,
      "ĠDatabase": 9137,
      "aaaa": 9138,
      "Ġmultiprocessing": 9139,
      "ĠOS": 9140,
      "UNK": 9141,
      "apis": 9142,
      "Running": 9143,
      "Ġ%%": 9144,
      "creation": 9145,
      "æĸĩä»¶": 9146,
      "Ġguess": 9147,
      "schemas": 9148,
      "(\"_": 9149,
      "ĠGame": 9150,
      "Ġtuples": 9151,
      "Information": 9152,
      "need": 9153,
      "RESULT": 9154,
      "ĠLIABILITY": 9155,
      "Has": 9156,
      "utron": 9157,
      "Ġair": 9158,
      "activate": 9159,
      "Ġpc": 9160,
      "Distance": 9161,
      "Socket": 9162,
      "photo": 9163,
      "ĠLOGGER": 9164,
      "Ġhook": 9165,
      "åŀĭ": 9166,
      "Ġartifact": 9167,
      "çĤ¹": 9168,
      "Done": 9169,
      "TAG": 9170,
      "REEN": 9171,
      "Ġreview": 9172,
      "ĠPROVID": 9173,
      "tv": 9174,
      "Ġboot": 9175,
      "issues": 9176,
      "igure": 9177,
      "ëĭ": 9178,
      "Ġdetected": 9179,
      "åĢ¼": 9180,
      "SED": 9181,
      "calcul": 9182,
      "Ġgran": 9183,
      "datas": 9184,
      "Ġflatten": 9185,
      "ĠBoolean": 9186,
      "exchange": 9187,
      "ĠSelect": 9188,
      "tracker": 9189,
      "routes": 9190,
      "para": 9191,
      "Ġ29": 9192,
      "olutions": 9193,
      "å¸": 9194,
      "Ġpress": 9195,
      "Compute": 9196,
      "Ġinline": 9197,
      "Ġali": 9198,
      "Syn": 9199,
      "Sig": 9200,
      "ĠCall": 9201,
      "Hub": 9202,
      "lify": 9203,
      "Hy": 9204,
      "rewards": 9205,
      "Training": 9206,
      "stmt": 9207,
      "ĠNormal": 9208,
      "2944": 9209,
      "periments": 9210,
      "ä¿¡": 9211,
      "ailability": 9212,
      "rove": 9213,
      "Ġvirtual": 9214,
      "ĠOrder": 9215,
      "Ġtau": 9216,
      "covery": 9217,
      "ĠKeyword": 9218,
      "FORM": 9219,
      "Ġpeak": 9220,
      "=\",": 9221,
      "ition": 9222,
      "ivo": 9223,
      "åĽ¾": 9224,
      "nick": 9225,
      "æµ": 9226,
      "sessions": 9227,
      "Ġcontract": 9228,
      "\"%": 9229,
      "ĠSum": 9230,
      "Ġrs": 9231,
      "fh": 9232,
      "LES": 9233,
      "ARGET": 9234,
      "assertIsInstance": 9235,
      "aj": 9236,
      "Ġwhite": 9237,
      "acher": 9238,
      "plane": 9239,
      "recogn": 9240,
      "seen": 9241,
      "working": 9242,
      "topics": 9243,
      "{\\": 9244,
      "Ġtopo": 9245,
      "updates": 9246,
      "Ġversions": 9247,
      "isco": 9248,
      "tsv": 9249,
      "Unable": 9250,
      "ĠConfiguration": 9251,
      "CLASS": 9252,
      "Ġmocker": 9253,
      "itecture": 9254,
      "Ġfid": 9255,
      "cookie": 9256,
      "Ġactiv": 9257,
      "UTF": 9258,
      "chool": 9259,
      "Ð¾ÑĤ": 9260,
      "Ġ_('": 9261,
      "Ġparallel": 9262,
      "tification": 9263,
      "ĠItem": 9264,
      "ĠOver": 9265,
      "Popen": 9266,
      "appro": 9267,
      "Ġeffect": 9268,
      "Does": 9269,
      "atives": 9270,
      "Ġ\\\\": 9271,
      "Ġdates": 9272,
      "Ġminutes": 9273,
      "ĠButton": 9274,
      "Ġ404": 9275,
      "interp": 9276,
      "coordinate": 9277,
      "binding": 9278,
      "è¦ģ": 9279,
      "rg": 9280,
      "Ġ101": 9281,
      "izations": 9282,
      "Ġht": 9283,
      "Diff": 9284,
      "nor": 9285,
      "lave": 9286,
      "alancer": 9287,
      "={},": 9288,
      "blueprint": 9289,
      "Authorization": 9290,
      "SN": 9291,
      "upy": 9292,
      "products": 9293,
      "both": 9294,
      "Ġinterpolation": 9295,
      "/__": 9296,
      "ining": 9297,
      "stdin": 9298,
      "planes": 9299,
      "fetchall": 9300,
      "Ġweek": 9301,
      "110": 9302,
      "mic": 9303,
      "Ġ{}\\": 9304,
      "icrosoft": 9305,
      "Lat": 9306,
      "splits": 9307,
      "ä»¥": 9308,
      "Ġrepresents": 9309,
      "Ġlaunch": 9310,
      "msgs": 9311,
      "disabled": 9312,
      "folio": 9313,
      "graphy": 9314,
      "æĸ°": 9315,
      "icky": 9316,
      "ĠJob": 9317,
      "ViewSet": 9318,
      "TABLE": 9319,
      "{{": 9320,
      "consumer": 9321,
      "sphere": 9322,
      "parents": 9323,
      "âĢį": 9324,
      "ä¸Ģä¸ª": 9325,
      "cart": 9326,
      "dark": 9327,
      "illing": 9328,
      "Del": 9329,
      "Ġdd": 9330,
      "ĠCSV": 9331,
      "Ġ48": 9332,
      "quivalent": 9333,
      "connections": 9334,
      "circuit": 9335,
      "cmp": 9336,
      "Ġclf": 9337,
      "spacing": 9338,
      "inte": 9339,
      "Ġssh": 9340,
      "fontsize": 9341,
      "preprocess": 9342,
      "Ġdet": 9343,
      "party": 9344,
      "chase": 9345,
      "latitude": 9346,
      "ships": 9347,
      "eb": 9348,
      "Ġcomments": 9349,
      "Mean": 9350,
      "Copyright": 9351,
      "ĠSource": 9352,
      "nectivity": 9353,
      "Ġpod": 9354,
      "asyn": 9355,
      "ticket": 9356,
      "infos": 9357,
      "Ġappropriate": 9358,
      "pat": 9359,
      "ĠFore": 9360,
      "LC": 9361,
      "organization": 9362,
      "Doc": 9363,
      "lision": 9364,
      "Ġarc": 9365,
      "ĠConnection": 9366,
      "Parent": 9367,
      "Symbol": 9368,
      "ĠLinear": 9369,
      "æŀľ": 9370,
      "scriminator": 9371,
      "filenames": 9372,
      "Ġarchive": 9373,
      "nost": 9374,
      "listener": 9375,
      "ĠĠĠĠĠĊ": 9376,
      "Ġbpy": 9377,
      "objective": 9378,
      "overflow": 9379,
      "è§": 9380,
      "Ġrepeat": 9381,
      "hole": 9382,
      "Bind": 9383,
      "Ġsubmit": 9384,
      "ulo": 9385,
      "Ġslug": 9386,
      "Export": 9387,
      "Sensor": 9388,
      "Ġbrowser": 9389,
      "irtual": 9390,
      "Average": 9391,
      "unary": 9392,
      "posts": 9393,
      "etc": 9394,
      "ĠThread": 9395,
      "ledge": 9396,
      "CLO": 9397,
      "tok": 9398,
      "Ġconstraints": 9399,
      "03252": 9400,
      "2944819": 9401,
      "ĠXXX": 9402,
      "4342944819": 9403,
      "dw": 9404,
      "isnan": 9405,
      "Selection": 9406,
      "434294481903252": 9407,
      "ĠTri": 9408,
      "Ġphone": 9409,
      "poses": 9410,
      "Ġclusters": 9411,
      "objs": 9412,
      "longitude": 9413,
      "discord": 9414,
      "sens": 9415,
      "tempts": 9416,
[...]
